/* Copyright 2019 The TensorFlow Authors. All Rights Reserved.

Licensed under the Apache License, Version 2.0 (the "License");
you may not use this file except in compliance with the License.
You may obtain a copy of the License at

    http://www.apache.org/licenses/LICENSE-2.0

Unless required by applicable law or agreed to in writing, software
distributed under the License is distributed on an "AS IS" BASIS,
WITHOUT WARRANTIES OR CONDITIONS OF ANY KIND, either express or implied.
See the License for the specific language governing permissions and
limitations under the License.
==============================================================================*/

// Automatically created from a TensorFlow Lite flatbuffer using the command:
// xxd -i magic_wand_model.tflite > magic_wand_model_data.cc
// See the README for a full description of the creation process.

#include "model.h"

// We need to keep the data array aligned on some architectures.
#ifdef __has_attribute
#define HAVE_ATTRIBUTE(x) __has_attribute(x)
#else
#define HAVE_ATTRIBUTE(x) 0
#endif
#if HAVE_ATTRIBUTE(aligned) || (defined(__GNUC__) && !defined(__clang__))
#define DATA_ALIGN_ATTRIBUTE __attribute__((aligned(4)))
#else
#define DATA_ALIGN_ATTRIBUTE
#endif

const unsigned char g_model[] DATA_ALIGN_ATTRIBUTE = {
  0x1c, 0x00, 0x00, 0x00, 0x54, 0x46, 0x4c, 0x33, 0x14, 0x00, 0x20, 0x00,
  0x1c, 0x00, 0x18, 0x00, 0x14, 0x00, 0x10, 0x00, 0x0c, 0x00, 0x00, 0x00,
  0x08, 0x00, 0x04, 0x00, 0x14, 0x00, 0x00, 0x00, 0x1c, 0x00, 0x00, 0x00,
  0x98, 0x00, 0x00, 0x00, 0xf0, 0x00, 0x00, 0x00, 0x58, 0x11, 0x00, 0x00,
  0x68, 0x11, 0x00, 0x00, 0xc0, 0x21, 0x00, 0x00, 0x03, 0x00, 0x00, 0x00,
  0x01, 0x00, 0x00, 0x00, 0x10, 0x00, 0x00, 0x00, 0x00, 0x00, 0x0a, 0x00,
  0x10, 0x00, 0x0c, 0x00, 0x08, 0x00, 0x04, 0x00, 0x0a, 0x00, 0x00, 0x00,
  0x0c, 0x00, 0x00, 0x00, 0x1c, 0x00, 0x00, 0x00, 0x3c, 0x00, 0x00, 0x00,
  0x0f, 0x00, 0x00, 0x00, 0x73, 0x65, 0x72, 0x76, 0x69, 0x6e, 0x67, 0x5f,
  0x64, 0x65, 0x66, 0x61, 0x75, 0x6c, 0x74, 0x00, 0x01, 0x00, 0x00, 0x00,
  0x04, 0x00, 0x00, 0x00, 0x90, 0xff, 0xff, 0xff, 0x18, 0x00, 0x00, 0x00,
  0x04, 0x00, 0x00, 0x00, 0x08, 0x00, 0x00, 0x00, 0x64, 0x65, 0x6e, 0x73,
  0x65, 0x5f, 0x32, 0x30, 0x00, 0x00, 0x00, 0x00, 0x01, 0x00, 0x00, 0x00,
  0x04, 0x00, 0x00, 0x00, 0x8e, 0xec, 0xff, 0xff, 0x04, 0x00, 0x00, 0x00,
  0x0e, 0x00, 0x00, 0x00, 0x64, 0x65, 0x6e, 0x73, 0x65, 0x5f, 0x31, 0x35,
  0x5f, 0x69, 0x6e, 0x70, 0x75, 0x74, 0x00, 0x00, 0x02, 0x00, 0x00, 0x00,
  0x34, 0x00, 0x00, 0x00, 0x04, 0x00, 0x00, 0x00, 0xdc, 0xff, 0xff, 0xff,
  0x1b, 0x00, 0x00, 0x00, 0x04, 0x00, 0x00, 0x00, 0x13, 0x00, 0x00, 0x00,
  0x43, 0x4f, 0x4e, 0x56, 0x45, 0x52, 0x53, 0x49, 0x4f, 0x4e, 0x5f, 0x4d,
  0x45, 0x54, 0x41, 0x44, 0x41, 0x54, 0x41, 0x00, 0x08, 0x00, 0x0c, 0x00,
  0x08, 0x00, 0x04, 0x00, 0x08, 0x00, 0x00, 0x00, 0x1a, 0x00, 0x00, 0x00,
  0x04, 0x00, 0x00, 0x00, 0x13, 0x00, 0x00, 0x00, 0x6d, 0x69, 0x6e, 0x5f,
  0x72, 0x75, 0x6e, 0x74, 0x69, 0x6d, 0x65, 0x5f, 0x76, 0x65, 0x72, 0x73,
  0x69, 0x6f, 0x6e, 0x00, 0x1c, 0x00, 0x00, 0x00, 0x64, 0x10, 0x00, 0x00,
  0x5c, 0x10, 0x00, 0x00, 0x44, 0x10, 0x00, 0x00, 0x24, 0x10, 0x00, 0x00,
  0xf4, 0x0f, 0x00, 0x00, 0xe4, 0x0d, 0x00, 0x00, 0xd4, 0x0c, 0x00, 0x00,
  0xc4, 0x04, 0x00, 0x00, 0x34, 0x04, 0x00, 0x00, 0x24, 0x02, 0x00, 0x00,
  0xd4, 0x01, 0x00, 0x00, 0x44, 0x01, 0x00, 0x00, 0x14, 0x01, 0x00, 0x00,
  0xec, 0x00, 0x00, 0x00, 0xe4, 0x00, 0x00, 0x00, 0xdc, 0x00, 0x00, 0x00,
  0xd4, 0x00, 0x00, 0x00, 0xcc, 0x00, 0x00, 0x00, 0xc4, 0x00, 0x00, 0x00,
  0xbc, 0x00, 0x00, 0x00, 0xb4, 0x00, 0x00, 0x00, 0xac, 0x00, 0x00, 0x00,
  0xa4, 0x00, 0x00, 0x00, 0x9c, 0x00, 0x00, 0x00, 0x94, 0x00, 0x00, 0x00,
  0x8c, 0x00, 0x00, 0x00, 0x6c, 0x00, 0x00, 0x00, 0x04, 0x00, 0x00, 0x00,
  0x7a, 0xed, 0xff, 0xff, 0x04, 0x00, 0x00, 0x00, 0x58, 0x00, 0x00, 0x00,
  0x0c, 0x00, 0x00, 0x00, 0x08, 0x00, 0x0e, 0x00, 0x08, 0x00, 0x04, 0x00,
  0x08, 0x00, 0x00, 0x00, 0x10, 0x00, 0x00, 0x00, 0x28, 0x00, 0x00, 0x00,
  0x00, 0x00, 0x06, 0x00, 0x08, 0x00, 0x04, 0x00, 0x06, 0x00, 0x00, 0x00,
  0x04, 0x00, 0x00, 0x00, 0x01, 0x00, 0x00, 0x00, 0xeb, 0x03, 0x00, 0x00,
  0x00, 0x00, 0x0a, 0x00, 0x10, 0x00, 0x0c, 0x00, 0x08, 0x00, 0x04, 0x00,
  0x0a, 0x00, 0x00, 0x00, 0x01, 0x00, 0x00, 0x00, 0x02, 0x00, 0x00, 0x00,
  0x04, 0x00, 0x00, 0x00, 0x06, 0x00, 0x00, 0x00, 0x32, 0x2e, 0x31, 0x33,
  0x2e, 0x30, 0x00, 0x00, 0xde, 0xed, 0xff, 0xff, 0x04, 0x00, 0x00, 0x00,
  0x10, 0x00, 0x00, 0x00, 0x31, 0x2e, 0x31, 0x34, 0x2e, 0x30, 0x00, 0x00,
  0x00, 0x00, 0x00, 0x00, 0x00, 0x00, 0x00, 0x00, 0xb8, 0xed, 0xff, 0xff,
  0xbc, 0xed, 0xff, 0xff, 0xc0, 0xed, 0xff, 0xff, 0xc4, 0xed, 0xff, 0xff,
  0xc8, 0xed, 0xff, 0xff, 0xcc, 0xed, 0xff, 0xff, 0xd0, 0xed, 0xff, 0xff,
  0xd4, 0xed, 0xff, 0xff, 0xd8, 0xed, 0xff, 0xff, 0xdc, 0xed, 0xff, 0xff,
  0xe0, 0xed, 0xff, 0xff, 0xe4, 0xed, 0xff, 0xff, 0x2a, 0xee, 0xff, 0xff,
  0x04, 0x00, 0x00, 0x00, 0x18, 0x00, 0x00, 0x00, 0xcb, 0x00, 0xc7, 0x65,
  0x48, 0x81, 0xc8, 0xf6, 0x13, 0x8a, 0xe6, 0x6e, 0xa6, 0x59, 0x9e, 0xe7,
  0xbb, 0xa2, 0xd1, 0x3d, 0x07, 0x50, 0x3f, 0x68, 0x4e, 0xee, 0xff, 0xff,
  0x04, 0x00, 0x00, 0x00, 0x20, 0x00, 0x00, 0x00, 0x02, 0x03, 0x00, 0x00,
  0xdf, 0x1e, 0x00, 0x00, 0x0d, 0x07, 0x00, 0x00, 0xdc, 0xfa, 0xff, 0xff,
  0x4a, 0x08, 0x00, 0x00, 0x3c, 0x09, 0x00, 0x00, 0x79, 0x06, 0x00, 0x00,
  0x07, 0x07, 0x00, 0x00, 0x7a, 0xee, 0xff, 0xff, 0x04, 0x00, 0x00, 0x00,
  0x80, 0x00, 0x00, 0x00, 0xd6, 0xcc, 0x05, 0xb2, 0x31, 0xf0, 0xe2, 0xe8,
  0xf4, 0x1f, 0xad, 0xeb, 0x56, 0xdc, 0xf4, 0x6a, 0x5c, 0x8b, 0x04, 0x24,
  0x20, 0x0e, 0x61, 0xe7, 0xbe, 0x43, 0x9c, 0xd6, 0x0f, 0xcd, 0x1a, 0x6f,
  0xd1, 0x10, 0xc4, 0xbe, 0xba, 0x19, 0xf8, 0xef, 0xd5, 0x11, 0x33, 0x9f,
  0xc7, 0xfe, 0x23, 0x5e, 0xeb, 0xeb, 0xca, 0x09, 0xa5, 0x5d, 0x9f, 0x6b,
  0x59, 0xb7, 0xcd, 0x0f, 0x50, 0xd0, 0x3e, 0xa2, 0xb1, 0x2b, 0x11, 0x27,
  0xc4, 0xa0, 0x28, 0xc0, 0xe6, 0x7f, 0x9b, 0xca, 0x36, 0xea, 0xd6, 0xe0,
  0x09, 0xf5, 0x4d, 0xd2, 0xaf, 0x2b, 0x9b, 0x2a, 0xec, 0x24, 0xf5, 0xcc,
  0x9d, 0x64, 0x47, 0x4e, 0x43, 0x71, 0xba, 0xb5, 0x1c, 0x01, 0xb5, 0x37,
  0x3b, 0xb5, 0x52, 0x04, 0xec, 0xa9, 0x5a, 0x01, 0xfa, 0x28, 0xea, 0xf5,
  0x3a, 0x4f, 0x04, 0x03, 0x16, 0xee, 0x2c, 0xe0, 0x3e, 0xbe, 0x4a, 0xaa,
  0x06, 0xef, 0xff, 0xff, 0x04, 0x00, 0x00, 0x00, 0x40, 0x00, 0x00, 0x00,
  0x9e, 0xfa, 0xff, 0xff, 0x63, 0x05, 0x00, 0x00, 0xc0, 0xf0, 0xff, 0xff,
  0x8b, 0x11, 0x00, 0x00, 0xb8, 0xf8, 0xff, 0xff, 0x6e, 0x1a, 0x00, 0x00,
  0xbf, 0x0b, 0x00, 0x00, 0xc2, 0x05, 0x00, 0x00, 0x02, 0xfb, 0xff, 0xff,
  0x72, 0x08, 0x00, 0x00, 0xd7, 0x0f, 0x00, 0x00, 0xb6, 0x15, 0x00, 0x00,
  0x2c, 0x0b, 0x00, 0x00, 0x26, 0x04, 0x00, 0x00, 0xe0, 0x05, 0x00, 0x00,
  0x88, 0xf7, 0xff, 0xff, 0x52, 0xef, 0xff, 0xff, 0x04, 0x00, 0x00, 0x00,
  0x00, 0x02, 0x00, 0x00, 0xcd, 0xf6, 0xef, 0xd0, 0xfe, 0x9f, 0xc2, 0xee,
  0x33, 0xfb, 0xba, 0xec, 0xf2, 0xe3, 0xc3, 0x1a, 0xf5, 0xdf, 0xd1, 0xfa,
  0x13, 0x5c, 0x10, 0xbb, 0x37, 0x05, 0x3a, 0x1a, 0x19, 0x2d, 0xf6, 0xc5,
  0x43, 0x2d, 0xf8, 0x49, 0xf4, 0xf3, 0xf6, 0x0e, 0xfc, 0xfc, 0x28, 0xe9,
  0x22, 0xe8, 0xec, 0x15, 0x2a, 0x14, 0x38, 0xb9, 0xd0, 0x03, 0xac, 0x38,
  0x26, 0xa3, 0xe9, 0xb8, 0xc1, 0xe8, 0x02, 0xfd, 0xde, 0x08, 0xf6, 0x07,
  0xe1, 0x0f, 0x21, 0x13, 0x02, 0xd9, 0x10, 0x59, 0x45, 0x0d, 0x1d, 0xd2,
  0xe0, 0x52, 0xa2, 0x43, 0x10, 0x3f, 0x0d, 0xe3, 0xb3, 0xe2, 0x15, 0x39,
  0x37, 0x04, 0x06, 0x21, 0xf9, 0xd3, 0xf6, 0xde, 0x1e, 0xb0, 0x0a, 0x02,
  0x3a, 0xa8, 0xb7, 0xf0, 0xa5, 0x4c, 0x10, 0xf7, 0xdf, 0xec, 0xc0, 0x43,
  0xef, 0xe5, 0xf3, 0xde, 0xdd, 0x02, 0x34, 0x49, 0x50, 0xce, 0x3b, 0xfd,
  0x01, 0xb8, 0x08, 0xcc, 0xf1, 0x1c, 0xcb, 0xdc, 0xf3, 0xf9, 0x0e, 0x15,
  0xb7, 0xdf, 0xc7, 0x3f, 0x35, 0x10, 0xf3, 0x3c, 0x01, 0x08, 0x30, 0x17,
  0xd7, 0xf8, 0xdf, 0x47, 0x23, 0xfd, 0xeb, 0x29, 0xe3, 0x2b, 0xb7, 0xf8,
  0xdc, 0x25, 0x10, 0xf1, 0x32, 0x01, 0x47, 0x62, 0x3b, 0x19, 0x41, 0xf4,
  0x25, 0xf4, 0x14, 0x1b, 0x2e, 0x09, 0x36, 0xd1, 0x35, 0xf0, 0x18, 0xe2,
  0x0d, 0xfc, 0x1e, 0xb3, 0xea, 0x2c, 0x0b, 0x28, 0x48, 0x3a, 0x07, 0xbc,
  0x3b, 0x28, 0xd5, 0xe8, 0xe0, 0x05, 0x11, 0x35, 0xec, 0xe8, 0xaa, 0x23,
  0xf2, 0x61, 0x44, 0xe1, 0xe3, 0x33, 0x3d, 0xf4, 0x3e, 0x30, 0x07, 0x23,
  0x21, 0x09, 0xe3, 0x1f, 0xf8, 0x54, 0xe8, 0xce, 0x34, 0x50, 0xe3, 0x5c,
  0x4e, 0xcd, 0xf1, 0xfc, 0xdd, 0x3b, 0xf3, 0x4a, 0x22, 0x35, 0x44, 0x06,
  0xe9, 0xeb, 0x40, 0x5b, 0x3d, 0x00, 0xe0, 0xbf, 0xd0, 0x22, 0xef, 0x12,
  0x44, 0x49, 0x2f, 0x2f, 0xdd, 0x46, 0x5d, 0x15, 0x4b, 0x0d, 0x2b, 0xd6,
  0x0a, 0xcf, 0x33, 0xbf, 0xa9, 0xbc, 0xa7, 0x06, 0x1a, 0xb3, 0xa6, 0x9e,
  0xa0, 0x14, 0xd7, 0x3b, 0x0f, 0xe1, 0x2d, 0xd9, 0xba, 0x9d, 0xac, 0x14,
  0xe2, 0xa5, 0xe4, 0xc5, 0xcd, 0x22, 0xeb, 0xf3, 0xf8, 0xf6, 0xaf, 0x0e,
  0x13, 0x28, 0x4b, 0x29, 0x28, 0x35, 0xe3, 0xe9, 0x23, 0xc8, 0x1c, 0x0d,
  0xce, 0x01, 0x0e, 0xc5, 0xd8, 0xd0, 0xfb, 0x19, 0xee, 0xa3, 0xb0, 0x04,
  0xc8, 0x52, 0xde, 0x33, 0xe5, 0x21, 0x0c, 0x07, 0x08, 0x13, 0x0f, 0x29,
  0xe7, 0x20, 0x50, 0xf7, 0xee, 0x2e, 0x30, 0xc6, 0x23, 0xfc, 0x17, 0x13,
  0xc5, 0x48, 0x31, 0xee, 0xc3, 0x16, 0xee, 0x2a, 0x3c, 0x14, 0x30, 0x3e,
  0x0a, 0x02, 0x19, 0x17, 0x3b, 0x1c, 0x05, 0xd2, 0xbd, 0x42, 0x13, 0x34,
  0xef, 0xc4, 0xdb, 0x29, 0xc1, 0x35, 0xbe, 0x26, 0x01, 0x4a, 0x2b, 0x32,
  0x19, 0x00, 0x40, 0x0a, 0x4b, 0x01, 0x17, 0xf3, 0xd4, 0x30, 0x9d, 0xe7,
  0x40, 0x01, 0x3f, 0xa0, 0xdb, 0x14, 0x1b, 0x32, 0x0c, 0xf9, 0xf2, 0xe3,
  0x19, 0xf2, 0xf5, 0x5c, 0x38, 0x07, 0x48, 0xf6, 0xfa, 0x46, 0x5f, 0xf4,
  0x06, 0x0e, 0xf5, 0x38, 0xfb, 0x10, 0xa1, 0x31, 0x2d, 0x0e, 0x55, 0xd5,
  0xd1, 0x1a, 0x4b, 0x1b, 0x41, 0xf7, 0x28, 0x0b, 0xdc, 0xb5, 0x28, 0xa4,
  0xb9, 0xd5, 0xbe, 0x3a, 0xe9, 0xba, 0xa2, 0xb2, 0xde, 0x5d, 0xf4, 0x03,
  0x11, 0xf7, 0x09, 0xf5, 0xfd, 0x74, 0x4a, 0xe4, 0xf1, 0x4e, 0xf5, 0x7f,
  0x13, 0xb7, 0x22, 0x10, 0xfd, 0x35, 0xae, 0x51, 0xde, 0x37, 0xfa, 0xec,
  0xf1, 0x42, 0x4a, 0x65, 0x4a, 0xda, 0x27, 0xc8, 0x18, 0x14, 0x15, 0xfa,
  0xc5, 0x2e, 0x3d, 0x0d, 0xd8, 0x52, 0xcd, 0xe7, 0x31, 0xd5, 0xf8, 0x13,
  0x5e, 0xf1, 0xff, 0xff, 0x04, 0x00, 0x00, 0x00, 0x80, 0x00, 0x00, 0x00,
  0x37, 0x00, 0x00, 0x00, 0x55, 0x0f, 0x00, 0x00, 0x40, 0x01, 0x00, 0x00,
  0xd0, 0x06, 0x00, 0x00, 0xe3, 0x09, 0x00, 0x00, 0x3f, 0x07, 0x00, 0x00,
  0xb4, 0x02, 0x00, 0x00, 0x5a, 0x0d, 0x00, 0x00, 0x56, 0xf1, 0xff, 0xff,
  0x21, 0x05, 0x00, 0x00, 0x79, 0x0a, 0x00, 0x00, 0x9a, 0x0b, 0x00, 0x00,
  0x64, 0xf0, 0xff, 0xff, 0x92, 0x0c, 0x00, 0x00, 0x2e, 0x1b, 0x00, 0x00,
  0x1d, 0x02, 0x00, 0x00, 0x23, 0x07, 0x00, 0x00, 0xd1, 0x0a, 0x00, 0x00,
  0x93, 0x04, 0x00, 0x00, 0xcf, 0x0b, 0x00, 0x00, 0x6d, 0x02, 0x00, 0x00,
  0x0f, 0x06, 0x00, 0x00, 0x43, 0x0b, 0x00, 0x00, 0x18, 0xfb, 0xff, 0xff,
  0xce, 0x0b, 0x00, 0x00, 0x06, 0x12, 0x00, 0x00, 0x13, 0x0d, 0x00, 0x00,
  0x97, 0x12, 0x00, 0x00, 0xed, 0x09, 0x00, 0x00, 0x43, 0x0e, 0x00, 0x00,
  0x06, 0x13, 0x00, 0x00, 0x54, 0x0a, 0x00, 0x00, 0xea, 0xf1, 0xff, 0xff,
  0x04, 0x00, 0x00, 0x00, 0x00, 0x08, 0x00, 0x00, 0x19, 0xd8, 0x06, 0x53,
  0xdf, 0xc1, 0x2b, 0xb8, 0xd8, 0xd0, 0x07, 0x08, 0x1d, 0xbb, 0xe3, 0xf8,
  0xf0, 0x56, 0x2f, 0x14, 0x55, 0xe9, 0x1e, 0x28, 0xca, 0xd7, 0x0e, 0xfd,
  0x5b, 0xec, 0xb0, 0x12, 0x09, 0xe2, 0x04, 0x1e, 0x25, 0x52, 0xd8, 0x4c,
  0xda, 0x0a, 0xf2, 0xd7, 0x1e, 0x1f, 0x08, 0x11, 0x37, 0x1f, 0x18, 0xf5,
  0xff, 0xf9, 0x24, 0x05, 0xee, 0x1a, 0x38, 0x53, 0xe0, 0x1c, 0xf6, 0x28,
  0xfa, 0x51, 0x3c, 0xe7, 0x08, 0x1e, 0x15, 0x00, 0x04, 0xd2, 0x3f, 0x04,
  0xce, 0x3b, 0x28, 0x29, 0x2e, 0x1a, 0xbd, 0x41, 0xc9, 0x30, 0x26, 0x0d,
  0x05, 0xec, 0x30, 0x55, 0xdf, 0x34, 0xf5, 0xcb, 0xdc, 0xfe, 0x06, 0x0f,
  0xd5, 0xff, 0x32, 0x19, 0xed, 0x08, 0xca, 0xf7, 0xba, 0xde, 0xe4, 0xc5,
  0x07, 0x4b, 0x37, 0xb6, 0x3f, 0x0f, 0x10, 0xaf, 0xda, 0xd6, 0xef, 0xc3,
  0x63, 0xda, 0xd8, 0xff, 0xea, 0x15, 0x19, 0xef, 0x35, 0x13, 0xd4, 0x17,
  0xf7, 0x03, 0x47, 0xea, 0xe2, 0x11, 0x0e, 0xfb, 0x0c, 0xeb, 0xbc, 0xf3,
  0xc5, 0x24, 0x20, 0x3a, 0x2d, 0x15, 0x48, 0x15, 0xe6, 0x34, 0x00, 0x44,
  0xf2, 0x18, 0x2b, 0x03, 0x0e, 0xdc, 0x05, 0xcd, 0xfe, 0x34, 0xd5, 0xdc,
  0xf0, 0xd5, 0xd8, 0xd9, 0x2f, 0x0f, 0xff, 0xed, 0xba, 0x0e, 0xea, 0x1a,
  0xed, 0x28, 0xf5, 0xfe, 0xce, 0xcf, 0xd9, 0x0e, 0xce, 0xe9, 0x2c, 0xea,
  0x0e, 0xf0, 0xed, 0x0d, 0x1d, 0x24, 0x41, 0x3a, 0xe5, 0xf1, 0x45, 0x2d,
  0xdd, 0xc6, 0xc5, 0xea, 0xdd, 0x35, 0x2f, 0x00, 0xf3, 0x46, 0x1c, 0x47,
  0xf2, 0x57, 0x0f, 0x11, 0x16, 0xc6, 0x0d, 0x27, 0xfa, 0xe5, 0x2c, 0x09,
  0x0d, 0xde, 0xd2, 0x1f, 0x30, 0xe1, 0x15, 0xf1, 0x28, 0xee, 0x3e, 0x0d,
  0x05, 0x1f, 0xc6, 0x0e, 0xe5, 0xfa, 0x15, 0xe5, 0x17, 0x1e, 0xc3, 0x2e,
  0xc8, 0x13, 0xf1, 0x03, 0x19, 0x5c, 0x01, 0xf8, 0xfa, 0x32, 0x05, 0x2f,
  0x04, 0xf5, 0x4f, 0x24, 0x24, 0x18, 0xb0, 0x4b, 0xe5, 0xd2, 0x10, 0x1d,
  0x3a, 0x58, 0x49, 0x39, 0xd1, 0x0b, 0x02, 0x35, 0x26, 0x14, 0xe7, 0x1f,
  0xd9, 0xcc, 0xed, 0xf8, 0xf0, 0xc8, 0xf4, 0xe6, 0xc8, 0xf5, 0xa4, 0xea,
  0x0e, 0xfc, 0x2a, 0xda, 0x1a, 0xdb, 0x0b, 0xc3, 0x12, 0xd6, 0xd8, 0xae,
  0x0c, 0xab, 0xc0, 0xed, 0x07, 0x38, 0x0b, 0xe8, 0x3e, 0x3e, 0xf8, 0x34,
  0x16, 0x3c, 0x33, 0xf1, 0xd1, 0x07, 0xf9, 0xeb, 0xe7, 0x08, 0xdc, 0x1f,
  0xdd, 0xd4, 0x15, 0x26, 0x02, 0xf1, 0x22, 0x2a, 0xd9, 0x17, 0x04, 0x0b,
  0x0b, 0xf0, 0xf5, 0x29, 0xd0, 0xc1, 0x40, 0xdc, 0x11, 0x27, 0xe6, 0x28,
  0x03, 0xb6, 0xfb, 0xc2, 0xba, 0x1e, 0x11, 0xbc, 0x41, 0x2f, 0xd5, 0x19,
  0xb7, 0xd7, 0xd7, 0xc8, 0x5e, 0xb2, 0xe8, 0xd9, 0x28, 0xf5, 0xf7, 0xb8,
  0x28, 0x5b, 0x1f, 0xed, 0xd9, 0x04, 0x16, 0xeb, 0x26, 0xf1, 0x0d, 0x34,
  0x25, 0x1b, 0xf7, 0x35, 0x11, 0x1a, 0x37, 0x1b, 0x38, 0x2f, 0xe3, 0xfa,
  0xa5, 0x2a, 0x3a, 0x1c, 0x2c, 0x3e, 0x34, 0x30, 0xf9, 0x0f, 0x1c, 0x1f,
  0x01, 0x19, 0xfb, 0xfc, 0x1b, 0x1c, 0x1f, 0x19, 0x35, 0xf3, 0x0a, 0x3b,
  0x08, 0x2e, 0x04, 0xed, 0x36, 0x1a, 0x38, 0x34, 0xc6, 0x38, 0x2e, 0x03,
  0x25, 0x0c, 0x27, 0x47, 0xf1, 0x09, 0x4e, 0xc2, 0x0a, 0xeb, 0xc3, 0xcc,
  0xed, 0xb4, 0xe5, 0xcb, 0xb9, 0x06, 0x5a, 0xfd, 0x0a, 0xf6, 0xe5, 0xae,
  0xec, 0xd0, 0x1a, 0xe6, 0x17, 0x00, 0xc0, 0xc6, 0xee, 0x23, 0x1e, 0xf9,
  0x36, 0x45, 0xc2, 0xf3, 0x29, 0xd6, 0x3d, 0x42, 0xe9, 0x4a, 0x00, 0x1f,
  0x1b, 0xb7, 0xe5, 0x10, 0xc8, 0x0b, 0x0c, 0xe1, 0x39, 0x49, 0x1f, 0x14,
  0xb2, 0x11, 0x02, 0x46, 0xef, 0x47, 0x0a, 0xcc, 0x23, 0x4d, 0x24, 0x2a,
  0xe0, 0x2e, 0xff, 0x33, 0x20, 0x21, 0x34, 0xff, 0x2e, 0xc9, 0xbe, 0x06,
  0xc0, 0x15, 0x1c, 0x28, 0x0a, 0x18, 0x22, 0x3a, 0xd8, 0xfb, 0x43, 0x0a,
  0x28, 0x06, 0xe9, 0x1f, 0xe2, 0xef, 0x31, 0xbd, 0xd7, 0xbe, 0xc4, 0x2c,
  0xe3, 0x16, 0xad, 0x16, 0x27, 0x5b, 0x2a, 0x0b, 0x31, 0x12, 0x0f, 0xfc,
  0xc4, 0xfc, 0xb8, 0xad, 0x39, 0x14, 0xb7, 0x0a, 0xfc, 0x08, 0xe3, 0x39,
  0xf7, 0xe6, 0x00, 0x0a, 0xd7, 0xf9, 0xd6, 0x2b, 0x09, 0x0d, 0xbc, 0xc5,
  0xbe, 0x10, 0x69, 0xf6, 0x43, 0x31, 0xe0, 0xc6, 0xce, 0xdb, 0xc9, 0x10,
  0x61, 0x1f, 0xf9, 0xe5, 0xf6, 0x26, 0x07, 0xee, 0xea, 0xe1, 0xeb, 0xf9,
  0xef, 0xef, 0x45, 0x34, 0x18, 0x24, 0xee, 0x43, 0xfb, 0xe1, 0xc8, 0x47,
  0xd6, 0x03, 0x39, 0xd6, 0x43, 0x47, 0x35, 0xfb, 0xdf, 0x25, 0x18, 0x3a,
  0x1a, 0x27, 0xfc, 0x16, 0xf4, 0xfe, 0x0a, 0x2c, 0x21, 0xea, 0x4c, 0xfd,
  0xd8, 0x0d, 0x1f, 0x19, 0x0a, 0xe5, 0x14, 0xfa, 0xc0, 0xf5, 0x3c, 0xda,
  0xf5, 0x27, 0x23, 0x2b, 0xcb, 0x6f, 0x13, 0xdf, 0x00, 0xe6, 0xfe, 0xb6,
  0xdf, 0x1b, 0x0f, 0x3d, 0xc7, 0x2f, 0xf9, 0x44, 0xe7, 0x0b, 0x03, 0x0f,
  0x44, 0xeb, 0xf8, 0x38, 0xe0, 0x32, 0xe8, 0x13, 0x18, 0x24, 0x26, 0x4d,
  0xe5, 0x07, 0x0d, 0xdb, 0x08, 0xfb, 0xd7, 0xbc, 0x40, 0xee, 0xe8, 0x2b,
  0x1c, 0xe1, 0x00, 0x3f, 0xfd, 0x20, 0x3f, 0x20, 0x09, 0x00, 0x19, 0xed,
  0xc4, 0x3d, 0xf8, 0xfa, 0x27, 0x33, 0x37, 0x23, 0xe4, 0x2c, 0x3c, 0x09,
  0x24, 0xe7, 0x41, 0xe2, 0x15, 0x02, 0x1f, 0xf1, 0xd5, 0xf7, 0xff, 0xef,
  0x3c, 0xee, 0x20, 0x4c, 0x26, 0xd3, 0xe0, 0xe6, 0xe5, 0x10, 0x24, 0x24,
  0x01, 0x13, 0xf2, 0x44, 0xb4, 0x5a, 0x0d, 0x05, 0x20, 0xf8, 0x1d, 0xe4,
  0x3c, 0xf9, 0x0b, 0xfd, 0xe8, 0x2b, 0x45, 0xdc, 0x42, 0x2f, 0x4e, 0x19,
  0x1d, 0xc4, 0x08, 0x07, 0xaa, 0x0a, 0x27, 0x08, 0xe5, 0x32, 0x01, 0x4d,
  0xde, 0x16, 0xf9, 0xde, 0x29, 0xdf, 0xd0, 0xfd, 0xf2, 0xb4, 0x49, 0xf3,
  0x09, 0xc4, 0xf2, 0x11, 0x02, 0xb4, 0x15, 0xbc, 0xe5, 0x38, 0x6d, 0x10,
  0x62, 0x05, 0xfc, 0x24, 0x0c, 0xf7, 0x15, 0x08, 0x62, 0xad, 0xfa, 0x27,
  0xd8, 0x4f, 0xf5, 0xcd, 0x3d, 0x2d, 0xdf, 0x45, 0x22, 0x41, 0xf0, 0x0e,
  0x13, 0x35, 0x2a, 0xfc, 0xec, 0xd7, 0x00, 0x0e, 0xb5, 0x2f, 0x1c, 0x21,
  0x0c, 0x3f, 0x27, 0x1c, 0xe6, 0x48, 0x47, 0xce, 0x01, 0x23, 0x0b, 0xe3,
  0x25, 0x10, 0xb6, 0x3f, 0xd2, 0x16, 0x49, 0xeb, 0xd2, 0x19, 0x4e, 0xe3,
  0xff, 0xba, 0xca, 0xf7, 0x02, 0xce, 0x23, 0x29, 0x47, 0xf7, 0x16, 0xed,
  0xb2, 0x27, 0x44, 0x41, 0x19, 0x07, 0x05, 0x54, 0x23, 0xc9, 0xff, 0xe6,
  0xcd, 0xde, 0xe5, 0xc5, 0xe0, 0xe5, 0xf2, 0xef, 0xea, 0x44, 0x3d, 0xcb,
  0x18, 0x04, 0x03, 0x16, 0x0d, 0xb4, 0xca, 0x18, 0x71, 0x0d, 0xbb, 0x34,
  0x20, 0xdd, 0x2d, 0xf3, 0x21, 0x04, 0xc7, 0x0c, 0x00, 0xfc, 0xf4, 0x2b,
  0xf6, 0x38, 0x1a, 0x27, 0x3a, 0xef, 0xf1, 0xee, 0xe4, 0x0d, 0x25, 0xf0,
  0x40, 0xf6, 0x1f, 0x12, 0xba, 0x34, 0x0c, 0x21, 0x26, 0xc5, 0x09, 0xfe,
  0x30, 0xeb, 0x11, 0xd9, 0xe3, 0xfd, 0x0c, 0xd3, 0x14, 0xb9, 0xff, 0xe1,
  0x07, 0x16, 0x1c, 0x28, 0x00, 0xd6, 0xf0, 0xe6, 0xd0, 0xd1, 0xe7, 0xcb,
  0x41, 0xf2, 0x0f, 0xfe, 0x1a, 0x42, 0x07, 0x0b, 0x18, 0x29, 0x09, 0xf5,
  0x09, 0xe3, 0xff, 0x13, 0x07, 0x4d, 0x02, 0x1e, 0x40, 0xf0, 0xaa, 0x3a,
  0xf1, 0x1f, 0xef, 0xfe, 0x30, 0x1c, 0xf5, 0x23, 0xcc, 0x1c, 0x06, 0x28,
  0x28, 0x24, 0xfb, 0x15, 0x1a, 0x54, 0x02, 0x3e, 0xee, 0x2c, 0x1c, 0x33,
  0xe4, 0x55, 0x4e, 0x0c, 0x18, 0x09, 0xfa, 0x37, 0x0d, 0xd3, 0x1b, 0x39,
  0x46, 0x06, 0x1f, 0x35, 0xc3, 0x2d, 0x1d, 0xe0, 0x20, 0x07, 0xed, 0x2a,
  0x27, 0xe3, 0xfc, 0x08, 0xeb, 0xf2, 0xcd, 0x28, 0x11, 0xe5, 0x07, 0xf3,
  0x1e, 0x4a, 0x1b, 0x22, 0x37, 0x03, 0xf9, 0xb4, 0xe0, 0xf5, 0xcc, 0xb5,
  0x33, 0xa8, 0xae, 0xe7, 0x11, 0xe4, 0x21, 0xf7, 0x1a, 0xf6, 0xfe, 0xc2,
  0xfe, 0xe2, 0x11, 0x14, 0x1e, 0xdb, 0x1b, 0x28, 0xbd, 0x3e, 0x3f, 0xd5,
  0x31, 0xe0, 0x16, 0xfa, 0xd6, 0xe6, 0xeb, 0xb3, 0x2e, 0xdb, 0xdc, 0xe5,
  0x07, 0x3d, 0x17, 0xd8, 0x0b, 0x09, 0xca, 0xee, 0xfd, 0x0a, 0x30, 0xe2,
  0xf6, 0x48, 0x4b, 0x13, 0xe6, 0x02, 0xfb, 0x03, 0xc0, 0x24, 0xd7, 0xfe,
  0x3c, 0x4b, 0x23, 0x61, 0xba, 0x5d, 0x55, 0x03, 0x14, 0x16, 0xdb, 0x35,
  0x03, 0x06, 0x01, 0xd2, 0x28, 0xc1, 0xd4, 0xca, 0xc9, 0xec, 0x81, 0xa4,
  0xd8, 0x5c, 0x15, 0xa8, 0x45, 0x39, 0x41, 0xb0, 0x0e, 0xd1, 0xfc, 0xab,
  0x2f, 0xa3, 0xe4, 0xf0, 0xd5, 0xdb, 0xf9, 0xe6, 0x24, 0xec, 0xf7, 0x27,
  0x35, 0x1a, 0xe0, 0xcf, 0x10, 0x01, 0xea, 0x2c, 0x06, 0x35, 0xd8, 0xee,
  0x05, 0xe3, 0x29, 0xe5, 0x13, 0xe4, 0x0b, 0x1b, 0xdb, 0x07, 0xf7, 0x24,
  0x1b, 0x4c, 0xe9, 0xad, 0xef, 0xf4, 0xf3, 0x3b, 0xc0, 0x27, 0x39, 0x25,
  0x30, 0x32, 0x3b, 0xf4, 0x04, 0xe6, 0xcd, 0x36, 0x1a, 0xd7, 0xdb, 0xf9,
  0x38, 0x5a, 0x16, 0x14, 0xf9, 0x61, 0x4f, 0x19, 0x09, 0xf6, 0x1c, 0x03,
  0xd4, 0x15, 0x48, 0x0a, 0x1f, 0xe8, 0x25, 0xe5, 0x0e, 0xb6, 0xd5, 0xe0,
  0xd4, 0x63, 0x53, 0xc1, 0x4e, 0xda, 0x00, 0xbe, 0xba, 0xb2, 0xc8, 0x01,
  0x24, 0xce, 0xba, 0xf3, 0xd6, 0x12, 0x0b, 0xe8, 0xe7, 0x38, 0xc5, 0x43,
  0xf6, 0xf0, 0x1e, 0xef, 0x20, 0x46, 0x43, 0x03, 0xf6, 0x11, 0xff, 0x4a,
  0xbf, 0xf4, 0x26, 0x13, 0x2b, 0xf7, 0x10, 0x5f, 0xf3, 0x59, 0xfd, 0x1e,
  0x0b, 0x0b, 0xef, 0x38, 0xca, 0xc5, 0xfb, 0xbf, 0xf7, 0xd4, 0xf9, 0x0c,
  0x2b, 0x08, 0xba, 0xc1, 0x1e, 0x02, 0x3d, 0x08, 0x41, 0x0a, 0xc7, 0xc7,
  0x12, 0x1c, 0x07, 0x24, 0x12, 0xd0, 0x20, 0x09, 0x1b, 0xe4, 0x21, 0xf7,
  0x31, 0x60, 0x02, 0x4e, 0xf4, 0x3a, 0x30, 0x1d, 0xdb, 0x38, 0x08, 0x57,
  0x19, 0xad, 0xff, 0x4a, 0xf4, 0xd2, 0xe8, 0x2c, 0x38, 0xed, 0xf9, 0x56,
  0xa0, 0x46, 0x39, 0x46, 0xce, 0x46, 0xe3, 0x10, 0xd7, 0x55, 0xeb, 0x0b,
  0xfb, 0x1f, 0x18, 0xe5, 0xf6, 0x2c, 0x03, 0x23, 0x34, 0x08, 0xad, 0x44,
  0xe1, 0x0f, 0xf4, 0xfd, 0x2d, 0xee, 0x03, 0x17, 0xb4, 0x34, 0x07, 0x1f,
  0xe5, 0x1d, 0xd9, 0xb3, 0x19, 0xfc, 0xe9, 0x24, 0xc2, 0x21, 0x0b, 0x45,
  0x37, 0x2b, 0x05, 0x42, 0x34, 0xc7, 0xb5, 0xeb, 0x1a, 0x0a, 0x2d, 0x2a,
  0xe6, 0x31, 0xdf, 0x1e, 0xe1, 0x0d, 0xe6, 0x33, 0xf6, 0xde, 0x2f, 0xc3,
  0x3f, 0x40, 0xe2, 0x46, 0xf0, 0x28, 0x48, 0x33, 0xf7, 0x38, 0x04, 0x0f,
  0x06, 0xbc, 0xa5, 0xed, 0xda, 0x30, 0x1a, 0x1d, 0x39, 0x31, 0xef, 0x31,
  0xe3, 0x3a, 0x0a, 0xe4, 0xf4, 0x0c, 0x1c, 0x0e, 0x2a, 0x4a, 0xf5, 0x3a,
  0xfa, 0xf2, 0xe2, 0xff, 0x2f, 0x3d, 0x05, 0x1c, 0x13, 0xcd, 0xd4, 0x43,
  0x16, 0x13, 0x12, 0x2b, 0xf8, 0x26, 0xf5, 0x26, 0xb6, 0x66, 0x4a, 0xf9,
  0xf5, 0x30, 0xe0, 0xe0, 0x0b, 0x17, 0xc8, 0x2b, 0xd5, 0x22, 0x33, 0xfe,
  0xfb, 0x01, 0x04, 0xe8, 0x37, 0xc3, 0xdb, 0x0d, 0xe9, 0x16, 0x31, 0xed,
  0xf1, 0x50, 0x4c, 0x45, 0xd9, 0x59, 0x19, 0x16, 0x28, 0xd5, 0xc6, 0x1e,
  0xf3, 0xf4, 0x33, 0x1d, 0x17, 0xcf, 0x1c, 0xc6, 0xcd, 0xf7, 0xbf, 0x2b,
  0x2d, 0x26, 0x62, 0xe9, 0x41, 0x35, 0xe5, 0x2b, 0x08, 0xcd, 0xbb, 0xd4,
  0x1c, 0xd9, 0xe1, 0x00, 0xd6, 0xeb, 0x21, 0xc0, 0xe0, 0xf4, 0xfe, 0x1e,
  0x23, 0x0d, 0x1d, 0xd7, 0x05, 0x0d, 0x1f, 0x3e, 0x11, 0xf5, 0xef, 0x2b,
  0x12, 0x2f, 0x25, 0xe3, 0xfe, 0xf8, 0xfd, 0x15, 0xdd, 0x10, 0x0a, 0x1a,
  0x10, 0x0b, 0x08, 0x4c, 0x37, 0xbc, 0x0e, 0x01, 0xe8, 0xdc, 0xc9, 0xc9,
  0xe6, 0x1f, 0xb8, 0x1e, 0xde, 0x75, 0x17, 0xda, 0x58, 0xe4, 0xfd, 0xbb,
  0xd9, 0xb6, 0xb8, 0xc3, 0x3d, 0xeb, 0xd6, 0xde, 0x2d, 0x16, 0x18, 0x38,
  0xbc, 0xdb, 0x29, 0xca, 0xf5, 0x10, 0x1d, 0xd0, 0xe3, 0xfd, 0xc7, 0xfb,
  0xf3, 0xe8, 0x19, 0xd3, 0xfd, 0xd9, 0x2d, 0xf1, 0xdd, 0xd5, 0xea, 0x19,
  0x05, 0xc2, 0xc6, 0xf8, 0xd7, 0x41, 0x2b, 0xdd, 0x3b, 0x55, 0xef, 0x50,
  0xf3, 0xe4, 0x44, 0xed, 0x1d, 0x0f, 0x4f, 0xe3, 0xf4, 0x0a, 0xdd, 0x30,
  0xfa, 0x14, 0xfa, 0x01, 0x47, 0x25, 0x4a, 0x37, 0xb1, 0x17, 0x11, 0xf3,
  0x0c, 0x0f, 0x1d, 0x07, 0x22, 0xf4, 0x0b, 0x46, 0xc3, 0x0b, 0xfc, 0x22,
  0xfb, 0xfa, 0xf6, 0x09, 0x32, 0xe0, 0xd7, 0x23, 0xb6, 0xd7, 0xff, 0x29,
  0xf4, 0xeb, 0x3e, 0x1a, 0xcc, 0x55, 0x22, 0x02, 0x1d, 0x22, 0xc5, 0x36,
  0xf7, 0x0e, 0x44, 0xd9, 0x20, 0xcd, 0xf5, 0x28, 0xd8, 0xf2, 0xfb, 0x15,
  0x24, 0x0c, 0x23, 0xff, 0x30, 0x3e, 0x32, 0xfc, 0x2e, 0x20, 0x04, 0x14,
  0x41, 0x1f, 0x17, 0x13, 0x13, 0xd9, 0x1f, 0x22, 0x18, 0x27, 0x10, 0xb1,
  0x2e, 0xd7, 0xd7, 0x02, 0xe6, 0xb7, 0xc9, 0x18, 0x28, 0x47, 0x61, 0xe9,
  0xf3, 0x05, 0x0c, 0x17, 0x13, 0xd7, 0xd9, 0xfb, 0x3e, 0xb8, 0xb6, 0xdc,
  0xc6, 0xfd, 0xff, 0xbf, 0x10, 0x4a, 0xb3, 0x12, 0x12, 0x32, 0xdc, 0xe8,
  0x02, 0x2b, 0x27, 0x20, 0x36, 0xb5, 0x09, 0x2c, 0xb2, 0xd4, 0x2f, 0xe2,
  0x4b, 0x31, 0x2b, 0x13, 0xf9, 0xfc, 0x31, 0xe3, 0xe1, 0xc9, 0x17, 0x60,
  0x19, 0xca, 0x09, 0x11, 0x30, 0x0f, 0xd9, 0xc4, 0xb8, 0xe8, 0xae, 0xc3,
  0xc4, 0x67, 0x11, 0xe4, 0x43, 0x22, 0xf2, 0x06, 0xbf, 0xf2, 0xae, 0x9c,
  0x51, 0xd8, 0xb0, 0xc2, 0xd1, 0x1c, 0x36, 0xff, 0x3f, 0x26, 0xbf, 0x38,
  0xe4, 0x42, 0xfe, 0xf9, 0xfd, 0x3b, 0x32, 0x2e, 0x2a, 0x08, 0xb2, 0x2c,
  0x00, 0xd8, 0x22, 0x17, 0x2f, 0x46, 0xfb, 0x1c, 0xb9, 0xff, 0x4f, 0x27,
  0x12, 0x35, 0x36, 0xf8, 0x00, 0x32, 0x10, 0xf7, 0xff, 0x32, 0x4b, 0x02,
  0xea, 0x2c, 0x26, 0xf2, 0x3c, 0x1a, 0xae, 0x17, 0xc9, 0xd7, 0xf6, 0x3d,
  0x2b, 0x59, 0x37, 0x2b, 0xed, 0x05, 0xeb, 0xfb, 0xd7, 0xfb, 0x19, 0xe9,
  0xdf, 0xb1, 0x44, 0xe6, 0x1a, 0xd6, 0xc8, 0x1a, 0xca, 0x13, 0xe4, 0x23,
  0x13, 0x45, 0x17, 0xcd, 0xfa, 0xeb, 0x0b, 0x14, 0xc1, 0x12, 0xff, 0xe3,
  0x62, 0x25, 0x1a, 0x2e, 0x16, 0x34, 0xf0, 0xdc, 0xec, 0x0e, 0xbc, 0x0b,
  0x09, 0xfc, 0x1f, 0x08, 0xfd, 0xf2, 0x22, 0x08, 0x4d, 0xec, 0xb5, 0x47,
  0xd9, 0xfb, 0xfe, 0x13, 0x18, 0x0b, 0x08, 0x4a, 0xea, 0x19, 0x14, 0x45,
  0x40, 0x16, 0x06, 0x41, 0xc2, 0x29, 0xed, 0x16, 0xdc, 0xf7, 0xfa, 0xd6,
  0x11, 0xb8, 0xe8, 0xef, 0xc2, 0x2e, 0xf4, 0xc6, 0x02, 0x02, 0x2d, 0x24,
  0xd9, 0xef, 0x0e, 0x25, 0x12, 0x00, 0x1f, 0x13, 0x29, 0x47, 0x01, 0xbd,
  0xf9, 0x09, 0xf2, 0x18, 0xd3, 0xec, 0x47, 0x47, 0xd8, 0xe7, 0x3b, 0x09,
  0x41, 0xf6, 0xe7, 0x3d, 0x12, 0x2a, 0x14, 0x23, 0xe2, 0x2c, 0x3f, 0x17,
  0xd2, 0x4c, 0x0a, 0x08, 0xf6, 0xf9, 0xff, 0xff, 0x04, 0x00, 0x00, 0x00,
  0x00, 0x01, 0x00, 0x00, 0x8e, 0x00, 0x00, 0x00, 0x87, 0x07, 0x00, 0x00,
  0xea, 0x01, 0x00, 0x00, 0xc8, 0xff, 0xff, 0xff, 0x9b, 0x08, 0x00, 0x00,
  0x81, 0xfe, 0xff, 0xff, 0xbc, 0x08, 0x00, 0x00, 0x7a, 0xfb, 0xff, 0xff,
  0xe1, 0x07, 0x00, 0x00, 0xe1, 0xfa, 0xff, 0xff, 0x8e, 0x08, 0x00, 0x00,
  0xd3, 0x00, 0x00, 0x00, 0xc5, 0x07, 0x00, 0x00, 0xef, 0x00, 0x00, 0x00,
  0x5a, 0xfd, 0xff, 0xff, 0x3c, 0x07, 0x00, 0x00, 0xe5, 0x09, 0x00, 0x00,
  0x75, 0xfe, 0xff, 0xff, 0x38, 0x06, 0x00, 0x00, 0x28, 0x06, 0x00, 0x00,
  0x89, 0x0a, 0x00, 0x00, 0x31, 0x08, 0x00, 0x00, 0x82, 0x07, 0x00, 0x00,
  0x5d, 0x08, 0x00, 0x00, 0x06, 0x06, 0x00, 0x00, 0xdb, 0xff, 0xff, 0xff,
  0x9c, 0x01, 0x00, 0x00, 0x21, 0x07, 0x00, 0x00, 0x4d, 0x03, 0x00, 0x00,
  0xe9, 0x06, 0x00, 0x00, 0x7e, 0x01, 0x00, 0x00, 0x8f, 0x08, 0x00, 0x00,
  0x6a, 0x02, 0x00, 0x00, 0x93, 0xff, 0xff, 0xff, 0x6f, 0x01, 0x00, 0x00,
  0x41, 0x09, 0x00, 0x00, 0x76, 0x0a, 0x00, 0x00, 0xbd, 0xf9, 0xff, 0xff,
  0x32, 0x07, 0x00, 0x00, 0x10, 0x00, 0x00, 0x00, 0xc8, 0x05, 0x00, 0x00,
  0xbb, 0xfc, 0xff, 0xff, 0x41, 0x09, 0x00, 0x00, 0xaa, 0x07, 0x00, 0x00,
  0xc3, 0x05, 0x00, 0x00, 0x07, 0x07, 0x00, 0x00, 0xa4, 0x09, 0x00, 0x00,
  0xee, 0x07, 0x00, 0x00, 0x46, 0xfe, 0xff, 0xff, 0xa8, 0x06, 0x00, 0x00,
  0x10, 0x0c, 0x00, 0x00, 0x55, 0xfa, 0xff, 0xff, 0x5f, 0x07, 0x00, 0x00,
  0x90, 0x07, 0x00, 0x00, 0x16, 0xfd, 0xff, 0xff, 0x15, 0xff, 0xff, 0xff,
  0xfb, 0x07, 0x00, 0x00, 0xfc, 0x03, 0x00, 0x00, 0xf9, 0x07, 0x00, 0x00,
  0x5b, 0x08, 0x00, 0x00, 0x5b, 0xfc, 0xff, 0xff, 0x87, 0x09, 0x00, 0x00,
  0xf9, 0xf9, 0xff, 0xff, 0x40, 0x08, 0x00, 0x00, 0x02, 0xfb, 0xff, 0xff,
  0x04, 0x00, 0x00, 0x00, 0x00, 0x02, 0x00, 0x00, 0xe7, 0xe7, 0x23, 0x20,
  0x13, 0xdf, 0x27, 0xfc, 0xfb, 0x12, 0x10, 0x26, 0xc6, 0x2c, 0x41, 0xa5,
  0x22, 0xef, 0x71, 0xc9, 0x3b, 0xcf, 0x01, 0xe8, 0x21, 0xfb, 0x14, 0xe1,
  0x20, 0xa9, 0xe1, 0x12, 0xe5, 0x44, 0xe4, 0xcd, 0x31, 0x0f, 0x21, 0xfa,
  0x24, 0x49, 0xcc, 0xcd, 0x18, 0x02, 0x01, 0xa6, 0x1a, 0xdf, 0x4e, 0xfb,
  0xe5, 0x9d, 0x18, 0x15, 0xe9, 0x33, 0x36, 0x13, 0x32, 0xc2, 0x2d, 0xfc,
  0x16, 0x17, 0x54, 0x98, 0xf2, 0x29, 0x05, 0x03, 0x49, 0xa8, 0x41, 0xd4,
  0x1b, 0xdf, 0xa1, 0xd5, 0x59, 0x8f, 0xec, 0xdc, 0x4f, 0x27, 0x50, 0xef,
  0x31, 0x93, 0x28, 0xea, 0xcd, 0x08, 0xba, 0x25, 0x7f, 0x1d, 0x19, 0x36,
  0xc4, 0xe6, 0x13, 0x26, 0x17, 0x41, 0x21, 0xfe, 0x59, 0xff, 0xf6, 0x5b,
  0x91, 0xf8, 0x0f, 0xcc, 0x32, 0xfc, 0x08, 0x29, 0x5d, 0x9b, 0x49, 0x65,
  0xb9, 0x73, 0xb8, 0x51, 0x43, 0x1b, 0x13, 0x03, 0xd8, 0xc2, 0xa9, 0x07,
  0xbb, 0x42, 0x3c, 0x3c, 0xfd, 0x25, 0x40, 0x9d, 0xfa, 0x5c, 0x4b, 0xaa,
  0xfc, 0x12, 0x30, 0xe6, 0xe2, 0x54, 0xb0, 0xa8, 0x7c, 0x1f, 0xef, 0xab,
  0xb4, 0x53, 0x48, 0xf7, 0x68, 0x21, 0x9e, 0x4b, 0xd1, 0x1f, 0xf7, 0x11,
  0x14, 0xcb, 0xe1, 0x19, 0x68, 0xbb, 0x61, 0x08, 0x0f, 0xbb, 0x3e, 0x6a,
  0xc1, 0x2d, 0x0f, 0xb2, 0x1b, 0xcd, 0xe0, 0xd9, 0x23, 0x58, 0x5f, 0xa7,
  0x2b, 0x9e, 0x55, 0xee, 0x3a, 0x25, 0x26, 0xbc, 0x1a, 0x6b, 0xb6, 0x4d,
  0x52, 0xec, 0xfc, 0x08, 0x38, 0x44, 0x59, 0x2b, 0xca, 0xf3, 0xf7, 0x34,
  0x94, 0x2c, 0xf0, 0x5a, 0x1e, 0xbf, 0x1d, 0xe9, 0x12, 0xed, 0xe6, 0xf7,
  0x6a, 0xbb, 0x50, 0x56, 0xe6, 0xd0, 0x55, 0x5c, 0xb1, 0x31, 0xcd, 0x22,
  0x44, 0xeb, 0x21, 0x96, 0x6d, 0xc5, 0x66, 0xf4, 0x08, 0x12, 0x00, 0x33,
  0x9a, 0x2d, 0x2d, 0x9c, 0x54, 0xa2, 0x30, 0xd8, 0x0d, 0xb7, 0x47, 0xe5,
  0x3c, 0x2c, 0xbe, 0x0c, 0x58, 0xb7, 0xe3, 0x23, 0x49, 0xfe, 0x5b, 0x37,
  0x51, 0xc1, 0x22, 0x31, 0xfb, 0x3d, 0xfb, 0x38, 0x17, 0xd7, 0xa5, 0x4d,
  0xdf, 0xf3, 0x43, 0xad, 0xf4, 0x0a, 0x06, 0x63, 0x45, 0x49, 0x44, 0x42,
  0xf0, 0x26, 0x0e, 0xbf, 0x6a, 0x68, 0x1a, 0xf7, 0xfd, 0xf3, 0x61, 0x69,
  0xd0, 0x29, 0xe8, 0x49, 0x67, 0xcf, 0xd9, 0x68, 0xf0, 0xe5, 0xf8, 0x09,
  0x08, 0xd6, 0x14, 0x31, 0xdb, 0xeb, 0x6d, 0xe3, 0xc9, 0x22, 0x61, 0x9c,
  0x1e, 0xaf, 0xce, 0xd7, 0xad, 0x0d, 0x16, 0xfc, 0x4e, 0xbf, 0x54, 0x02,
  0x16, 0x75, 0xed, 0x9c, 0x6d, 0xa8, 0xf0, 0x07, 0xd4, 0x50, 0xad, 0x97,
  0xb6, 0xd8, 0xee, 0x33, 0x42, 0xc7, 0x74, 0x06, 0xe0, 0x0d, 0x30, 0x5d,
  0x0a, 0x33, 0xd1, 0xbb, 0x0f, 0xe1, 0x1d, 0xa5, 0x4d, 0x03, 0x03, 0x59,
  0x06, 0xc1, 0x05, 0x2e, 0x2a, 0x1e, 0xed, 0x41, 0x16, 0x3a, 0x16, 0xa7,
  0x2b, 0x55, 0x5c, 0xea, 0xf2, 0x33, 0xc2, 0x26, 0xe6, 0x2e, 0xb1, 0x15,
  0x37, 0x36, 0xe3, 0x14, 0x30, 0x76, 0xee, 0xcc, 0xe3, 0x01, 0xad, 0x03,
  0xc7, 0x55, 0x04, 0x1c, 0xf2, 0x11, 0x05, 0xc2, 0x60, 0x16, 0xf7, 0x2d,
  0x33, 0x9a, 0x18, 0x73, 0xf4, 0x4a, 0xc2, 0xdd, 0x41, 0xa9, 0xc3, 0x34,
  0xb5, 0x4a, 0x28, 0xa3, 0xf3, 0x23, 0x4a, 0xff, 0x24, 0x89, 0x5f, 0xc4,
  0x0c, 0x49, 0x16, 0x5f, 0x70, 0xe2, 0x21, 0x5d, 0x22, 0x60, 0x48, 0x02,
  0xcd, 0xdd, 0x37, 0xd2, 0xb3, 0x69, 0xb8, 0xe8, 0x7e, 0xf8, 0x35, 0x60,
  0xc7, 0x12, 0x3b, 0x03, 0x09, 0x40, 0x23, 0xd5, 0x5b, 0x65, 0x01, 0x18,
  0xfa, 0x48, 0xb1, 0x9e, 0xe1, 0x70, 0xec, 0xc0, 0xfa, 0x0f, 0xe1, 0x28,
  0xa6, 0x10, 0x0a, 0x02, 0x0e, 0xfd, 0xff, 0xff, 0x04, 0x00, 0x00, 0x00,
  0x20, 0x00, 0x00, 0x00, 0x4b, 0xfd, 0xff, 0xff, 0xb8, 0x04, 0x00, 0x00,
  0x41, 0xfe, 0xff, 0xff, 0x07, 0x04, 0x00, 0x00, 0xf1, 0x03, 0x00, 0x00,
  0x3a, 0xfe, 0xff, 0xff, 0x8a, 0xfd, 0xff, 0xff, 0x7c, 0x04, 0x00, 0x00,
  0x3a, 0xfd, 0xff, 0xff, 0x04, 0x00, 0x00, 0x00, 0x10, 0x00, 0x00, 0x00,
  0x54, 0xa7, 0x7f, 0xc4, 0xeb, 0x5e, 0x08, 0x32, 0x17, 0xdc, 0x9e, 0x1b,
  0x6c, 0xe0, 0xda, 0x6f, 0x56, 0xfd, 0xff, 0xff, 0x04, 0x00, 0x00, 0x00,
  0x08, 0x00, 0x00, 0x00, 0xa2, 0xff, 0xff, 0xff, 0x5e, 0x00, 0x00, 0x00,
  0x28, 0xfd, 0xff, 0xff, 0x2c, 0xfd, 0xff, 0xff, 0x0f, 0x00, 0x00, 0x00,
  0x4d, 0x4c, 0x49, 0x52, 0x20, 0x43, 0x6f, 0x6e, 0x76, 0x65, 0x72, 0x74,
  0x65, 0x64, 0x2e, 0x00, 0x01, 0x00, 0x00, 0x00, 0x14, 0x00, 0x00, 0x00,
  0x00, 0x00, 0x0e, 0x00, 0x18, 0x00, 0x14, 0x00, 0x10, 0x00, 0x0c, 0x00,
  0x08, 0x00, 0x04, 0x00, 0x0e, 0x00, 0x00, 0x00, 0x14, 0x00, 0x00, 0x00,
  0x1c, 0x00, 0x00, 0x00, 0xb8, 0x02, 0x00, 0x00, 0xbc, 0x02, 0x00, 0x00,
  0xc0, 0x02, 0x00, 0x00, 0x04, 0x00, 0x00, 0x00, 0x6d, 0x61, 0x69, 0x6e,
  0x00, 0x00, 0x00, 0x00, 0x0c, 0x00, 0x00, 0x00, 0x68, 0x02, 0x00, 0x00,
  0x1c, 0x02, 0x00, 0x00, 0xd8, 0x01, 0x00, 0x00, 0xa4, 0x01, 0x00, 0x00,
  0x70, 0x01, 0x00, 0x00, 0x3c, 0x01, 0x00, 0x00, 0x08, 0x01, 0x00, 0x00,
  0xd4, 0x00, 0x00, 0x00, 0xa0, 0x00, 0x00, 0x00, 0x6c, 0x00, 0x00, 0x00,
  0x38, 0x00, 0x00, 0x00, 0x04, 0x00, 0x00, 0x00, 0x1e, 0xfe, 0xff, 0xff,
  0x14, 0x00, 0x00, 0x00, 0x00, 0x00, 0x00, 0x09, 0x14, 0x00, 0x00, 0x00,
  0x18, 0x00, 0x00, 0x00, 0x02, 0x00, 0x00, 0x00, 0x0e, 0xfe, 0xff, 0xff,
  0x00, 0x00, 0x80, 0x3f, 0x01, 0x00, 0x00, 0x00, 0x18, 0x00, 0x00, 0x00,
  0x01, 0x00, 0x00, 0x00, 0x17, 0x00, 0x00, 0x00, 0x06, 0xfe, 0xff, 0xff,
  0x10, 0x00, 0x00, 0x00, 0x00, 0x00, 0x00, 0x08, 0x0c, 0x00, 0x00, 0x00,
  0x10, 0x00, 0x00, 0x00, 0xf8, 0xfd, 0xff, 0xff, 0x01, 0x00, 0x00, 0x00,
  0x17, 0x00, 0x00, 0x00, 0x03, 0x00, 0x00, 0x00, 0x16, 0x00, 0x00, 0x00,
  0x02, 0x00, 0x00, 0x00, 0x01, 0x00, 0x00, 0x00, 0x7e, 0xfe, 0xff, 0xff,
  0x14, 0x00, 0x00, 0x00, 0x00, 0x00, 0x00, 0x4b, 0x14, 0x00, 0x00, 0x00,
  0x18, 0x00, 0x00, 0x00, 0x01, 0x00, 0x00, 0x00, 0x6e, 0xfe, 0xff, 0xff,
  0x9a, 0x99, 0x99, 0x3e, 0x01, 0x00, 0x00, 0x00, 0x16, 0x00, 0x00, 0x00,
  0x01, 0x00, 0x00, 0x00, 0x15, 0x00, 0x00, 0x00, 0x66, 0xfe, 0xff, 0xff,
  0x10, 0x00, 0x00, 0x00, 0x00, 0x00, 0x00, 0x08, 0x0c, 0x00, 0x00, 0x00,
  0x10, 0x00, 0x00, 0x00, 0x58, 0xfe, 0xff, 0xff, 0x01, 0x00, 0x00, 0x00,
  0x15, 0x00, 0x00, 0x00, 0x03, 0x00, 0x00, 0x00, 0x14, 0x00, 0x00, 0x00,
  0x04, 0x00, 0x00, 0x00, 0x03, 0x00, 0x00, 0x00, 0xde, 0xfe, 0xff, 0xff,
  0x14, 0x00, 0x00, 0x00, 0x00, 0x00, 0x00, 0x4b, 0x14, 0x00, 0x00, 0x00,
  0x18, 0x00, 0x00, 0x00, 0x01, 0x00, 0x00, 0x00, 0xce, 0xfe, 0xff, 0xff,
  0x9a, 0x99, 0x99, 0x3e, 0x01, 0x00, 0x00, 0x00, 0x14, 0x00, 0x00, 0x00,
  0x01, 0x00, 0x00, 0x00, 0x13, 0x00, 0x00, 0x00, 0xc6, 0xfe, 0xff, 0xff,
  0x10, 0x00, 0x00, 0x00, 0x00, 0x00, 0x00, 0x08, 0x0c, 0x00, 0x00, 0x00,
  0x10, 0x00, 0x00, 0x00, 0xb8, 0xfe, 0xff, 0xff, 0x01, 0x00, 0x00, 0x00,
  0x13, 0x00, 0x00, 0x00, 0x03, 0x00, 0x00, 0x00, 0x12, 0x00, 0x00, 0x00,
  0x06, 0x00, 0x00, 0x00, 0x05, 0x00, 0x00, 0x00, 0x3e, 0xff, 0xff, 0xff,
  0x14, 0x00, 0x00, 0x00, 0x00, 0x00, 0x00, 0x4b, 0x14, 0x00, 0x00, 0x00,
  0x18, 0x00, 0x00, 0x00, 0x01, 0x00, 0x00, 0x00, 0x2e, 0xff, 0xff, 0xff,
  0x9a, 0x99, 0x99, 0x3e, 0x01, 0x00, 0x00, 0x00, 0x12, 0x00, 0x00, 0x00,
  0x01, 0x00, 0x00, 0x00, 0x11, 0x00, 0x00, 0x00, 0x26, 0xff, 0xff, 0xff,
  0x10, 0x00, 0x00, 0x00, 0x00, 0x00, 0x00, 0x08, 0x0c, 0x00, 0x00, 0x00,
  0x10, 0x00, 0x00, 0x00, 0x18, 0xff, 0xff, 0xff, 0x01, 0x00, 0x00, 0x00,
  0x11, 0x00, 0x00, 0x00, 0x03, 0x00, 0x00, 0x00, 0x10, 0x00, 0x00, 0x00,
  0x08, 0x00, 0x00, 0x00, 0x07, 0x00, 0x00, 0x00, 0x9e, 0xff, 0xff, 0xff,
  0x14, 0x00, 0x00, 0x00, 0x00, 0x00, 0x00, 0x4b, 0x14, 0x00, 0x00, 0x00,
  0x18, 0x00, 0x00, 0x00, 0x01, 0x00, 0x00, 0x00, 0x8e, 0xff, 0xff, 0xff,
  0x9a, 0x99, 0x99, 0x3e, 0x01, 0x00, 0x00, 0x00, 0x10, 0x00, 0x00, 0x00,
  0x01, 0x00, 0x00, 0x00, 0x0f, 0x00, 0x00, 0x00, 0x86, 0xff, 0xff, 0xff,
  0x10, 0x00, 0x00, 0x00, 0x00, 0x00, 0x00, 0x08, 0x0c, 0x00, 0x00, 0x00,
  0x10, 0x00, 0x00, 0x00, 0x78, 0xff, 0xff, 0xff, 0x01, 0x00, 0x00, 0x00,
  0x0f, 0x00, 0x00, 0x00, 0x03, 0x00, 0x00, 0x00, 0x0e, 0x00, 0x00, 0x00,
  0x0a, 0x00, 0x00, 0x00, 0x09, 0x00, 0x00, 0x00, 0x00, 0x00, 0x0e, 0x00,
  0x1a, 0x00, 0x14, 0x00, 0x10, 0x00, 0x0c, 0x00, 0x0b, 0x00, 0x04, 0x00,
  0x0e, 0x00, 0x00, 0x00, 0x1c, 0x00, 0x00, 0x00, 0x00, 0x00, 0x00, 0x4b,
  0x1c, 0x00, 0x00, 0x00, 0x20, 0x00, 0x00, 0x00, 0x01, 0x00, 0x00, 0x00,
  0x00, 0x00, 0x06, 0x00, 0x08, 0x00, 0x04, 0x00, 0x06, 0x00, 0x00, 0x00,
  0x9a, 0x99, 0x99, 0x3e, 0x01, 0x00, 0x00, 0x00, 0x0e, 0x00, 0x00, 0x00,
  0x01, 0x00, 0x00, 0x00, 0x0d, 0x00, 0x00, 0x00, 0x00, 0x00, 0x0e, 0x00,
  0x14, 0x00, 0x00, 0x00, 0x10, 0x00, 0x0c, 0x00, 0x0b, 0x00, 0x04, 0x00,
  0x0e, 0x00, 0x00, 0x00, 0x14, 0x00, 0x00, 0x00, 0x00, 0x00, 0x00, 0x08,
  0x10, 0x00, 0x00, 0x00, 0x14, 0x00, 0x00, 0x00, 0x04, 0x00, 0x04, 0x00,
  0x04, 0x00, 0x00, 0x00, 0x01, 0x00, 0x00, 0x00, 0x0d, 0x00, 0x00, 0x00,
  0x03, 0x00, 0x00, 0x00, 0x00, 0x00, 0x00, 0x00, 0x0c, 0x00, 0x00, 0x00,
  0x0b, 0x00, 0x00, 0x00, 0x01, 0x00, 0x00, 0x00, 0x18, 0x00, 0x00, 0x00,
  0x01, 0x00, 0x00, 0x00, 0x00, 0x00, 0x00, 0x00, 0x19, 0x00, 0x00, 0x00,
  0xe0, 0x0c, 0x00, 0x00, 0x48, 0x0c, 0x00, 0x00, 0xbc, 0x0b, 0x00, 0x00,
  0x40, 0x0b, 0x00, 0x00, 0xcc, 0x0a, 0x00, 0x00, 0x50, 0x0a, 0x00, 0x00,
  0xdc, 0x09, 0x00, 0x00, 0x60, 0x09, 0x00, 0x00, 0xec, 0x08, 0x00, 0x00,
  0x70, 0x08, 0x00, 0x00, 0xfc, 0x07, 0x00, 0x00, 0x80, 0x07, 0x00, 0x00,
  0x0c, 0x07, 0x00, 0x00, 0x70, 0x06, 0x00, 0x00, 0xdc, 0x05, 0x00, 0x00,
  0x40, 0x05, 0x00, 0x00, 0xac, 0x04, 0x00, 0x00, 0x10, 0x04, 0x00, 0x00,
  0x7c, 0x03, 0x00, 0x00, 0xe0, 0x02, 0x00, 0x00, 0x4c, 0x02, 0x00, 0x00,
  0xb0, 0x01, 0x00, 0x00, 0x1c, 0x01, 0x00, 0x00, 0x80, 0x00, 0x00, 0x00,
  0x04, 0x00, 0x00, 0x00, 0x9a, 0xf3, 0xff, 0xff, 0x00, 0x00, 0x00, 0x01,
  0x18, 0x00, 0x00, 0x00, 0x20, 0x00, 0x00, 0x00, 0x3c, 0x00, 0x00, 0x00,
  0x19, 0x00, 0x00, 0x00, 0x00, 0x00, 0x00, 0x09, 0x50, 0x00, 0x00, 0x00,
  0x02, 0x00, 0x00, 0x00, 0xff, 0xff, 0xff, 0xff, 0x02, 0x00, 0x00, 0x00,
  0x84, 0xf3, 0xff, 0xff, 0x08, 0x00, 0x00, 0x00, 0x10, 0x00, 0x00, 0x00,
  0x01, 0x00, 0x00, 0x00, 0x80, 0xff, 0xff, 0xff, 0xff, 0xff, 0xff, 0xff,
  0x01, 0x00, 0x00, 0x00, 0x00, 0x00, 0x80, 0x3b, 0x19, 0x00, 0x00, 0x00,
  0x53, 0x74, 0x61, 0x74, 0x65, 0x66, 0x75, 0x6c, 0x50, 0x61, 0x72, 0x74,
  0x69, 0x74, 0x69, 0x6f, 0x6e, 0x65, 0x64, 0x43, 0x61, 0x6c, 0x6c, 0x3a,
  0x30, 0x00, 0x00, 0x00, 0x02, 0x00, 0x00, 0x00, 0x01, 0x00, 0x00, 0x00,
  0x02, 0x00, 0x00, 0x00, 0x12, 0xf4, 0xff, 0xff, 0x00, 0x00, 0x00, 0x01,
  0x18, 0x00, 0x00, 0x00, 0x20, 0x00, 0x00, 0x00, 0x3c, 0x00, 0x00, 0x00,
  0x18, 0x00, 0x00, 0x00, 0x00, 0x00, 0x00, 0x09, 0x70, 0x00, 0x00, 0x00,
  0x02, 0x00, 0x00, 0x00, 0xff, 0xff, 0xff, 0xff, 0x02, 0x00, 0x00, 0x00,
  0xfc, 0xf3, 0xff, 0xff, 0x08, 0x00, 0x00, 0x00, 0x10, 0x00, 0x00, 0x00,
  0x01, 0x00, 0x00, 0x00, 0xeb, 0xff, 0xff, 0xff, 0xff, 0xff, 0xff, 0xff,
  0x01, 0x00, 0x00, 0x00, 0xb0, 0x21, 0x17, 0x3e, 0x3a, 0x00, 0x00, 0x00,
  0x73, 0x65, 0x71, 0x75, 0x65, 0x6e, 0x74, 0x69, 0x61, 0x6c, 0x5f, 0x33,
  0x2f, 0x64, 0x65, 0x6e, 0x73, 0x65, 0x5f, 0x32, 0x30, 0x2f, 0x4d, 0x61,
  0x74, 0x4d, 0x75, 0x6c, 0x3b, 0x73, 0x65, 0x71, 0x75, 0x65, 0x6e, 0x74,
  0x69, 0x61, 0x6c, 0x5f, 0x33, 0x2f, 0x64, 0x65, 0x6e, 0x73, 0x65, 0x5f,
  0x32, 0x30, 0x2f, 0x42, 0x69, 0x61, 0x73, 0x41, 0x64, 0x64, 0x00, 0x00,
  0x02, 0x00, 0x00, 0x00, 0x01, 0x00, 0x00, 0x00, 0x02, 0x00, 0x00, 0x00,
  0xaa, 0xf4, 0xff, 0xff, 0x00, 0x00, 0x00, 0x01, 0x18, 0x00, 0x00, 0x00,
  0x20, 0x00, 0x00, 0x00, 0x40, 0x00, 0x00, 0x00, 0x17, 0x00, 0x00, 0x00,
  0x00, 0x00, 0x00, 0x09, 0x68, 0x00, 0x00, 0x00, 0x02, 0x00, 0x00, 0x00,
  0xff, 0xff, 0xff, 0xff, 0x08, 0x00, 0x00, 0x00, 0x94, 0xf4, 0xff, 0xff,
  0x08, 0x00, 0x00, 0x00, 0x14, 0x00, 0x00, 0x00, 0x01, 0x00, 0x00, 0x00,
  0xac, 0xff, 0xff, 0xff, 0xff, 0xff, 0xff, 0xff, 0x00, 0x00, 0x00, 0x00,
  0x01, 0x00, 0x00, 0x00, 0x37, 0x74, 0x9c, 0x3d, 0x2e, 0x00, 0x00, 0x00,
  0x73, 0x65, 0x71, 0x75, 0x65, 0x6e, 0x74, 0x69, 0x61, 0x6c, 0x5f, 0x33,
  0x2f, 0x64, 0x65, 0x6e, 0x73, 0x65, 0x5f, 0x31, 0x39, 0x2f, 0x6c, 0x65,
  0x61, 0x6b, 0x79, 0x5f, 0x72, 0x65, 0x5f, 0x6c, 0x75, 0x5f, 0x31, 0x30,
  0x2f, 0x4c, 0x65, 0x61, 0x6b, 0x79, 0x52, 0x65, 0x6c, 0x75, 0x00, 0x00,
  0x02, 0x00, 0x00, 0x00, 0x01, 0x00, 0x00, 0x00, 0x08, 0x00, 0x00, 0x00,
  0x3a, 0xf5, 0xff, 0xff, 0x00, 0x00, 0x00, 0x01, 0x18, 0x00, 0x00, 0x00,
  0x20, 0x00, 0x00, 0x00, 0x3c, 0x00, 0x00, 0x00, 0x16, 0x00, 0x00, 0x00,
  0x00, 0x00, 0x00, 0x09, 0x70, 0x00, 0x00, 0x00, 0x02, 0x00, 0x00, 0x00,
  0xff, 0xff, 0xff, 0xff, 0x08, 0x00, 0x00, 0x00, 0x24, 0xf5, 0xff, 0xff,
  0x08, 0x00, 0x00, 0x00, 0x10, 0x00, 0x00, 0x00, 0x01, 0x00, 0x00, 0x00,
  0xe8, 0xff, 0xff, 0xff, 0xff, 0xff, 0xff, 0xff, 0x01, 0x00, 0x00, 0x00,
  0x81, 0x2a, 0xdb, 0x3d, 0x3a, 0x00, 0x00, 0x00, 0x73, 0x65, 0x71, 0x75,
  0x65, 0x6e, 0x74, 0x69, 0x61, 0x6c, 0x5f, 0x33, 0x2f, 0x64, 0x65, 0x6e,
  0x73, 0x65, 0x5f, 0x31, 0x39, 0x2f, 0x4d, 0x61, 0x74, 0x4d, 0x75, 0x6c,
  0x3b, 0x73, 0x65, 0x71, 0x75, 0x65, 0x6e, 0x74, 0x69, 0x61, 0x6c, 0x5f,
  0x33, 0x2f, 0x64, 0x65, 0x6e, 0x73, 0x65, 0x5f, 0x31, 0x39, 0x2f, 0x42,
  0x69, 0x61, 0x73, 0x41, 0x64, 0x64, 0x00, 0x00, 0x02, 0x00, 0x00, 0x00,
  0x01, 0x00, 0x00, 0x00, 0x08, 0x00, 0x00, 0x00, 0xd2, 0xf5, 0xff, 0xff,
  0x00, 0x00, 0x00, 0x01, 0x18, 0x00, 0x00, 0x00, 0x20, 0x00, 0x00, 0x00,
  0x40, 0x00, 0x00, 0x00, 0x15, 0x00, 0x00, 0x00, 0x00, 0x00, 0x00, 0x09,
  0x68, 0x00, 0x00, 0x00, 0x02, 0x00, 0x00, 0x00, 0xff, 0xff, 0xff, 0xff,
  0x40, 0x00, 0x00, 0x00, 0xbc, 0xf5, 0xff, 0xff, 0x08, 0x00, 0x00, 0x00,
  0x14, 0x00, 0x00, 0x00, 0x01, 0x00, 0x00, 0x00, 0xbc, 0xff, 0xff, 0xff,
  0xff, 0xff, 0xff, 0xff, 0x00, 0x00, 0x00, 0x00, 0x01, 0x00, 0x00, 0x00,
  0xa2, 0x22, 0x6c, 0x3c, 0x2d, 0x00, 0x00, 0x00, 0x73, 0x65, 0x71, 0x75,
  0x65, 0x6e, 0x74, 0x69, 0x61, 0x6c, 0x5f, 0x33, 0x2f, 0x64, 0x65, 0x6e,
  0x73, 0x65, 0x5f, 0x31, 0x38, 0x2f, 0x6c, 0x65, 0x61, 0x6b, 0x79, 0x5f,
  0x72, 0x65, 0x5f, 0x6c, 0x75, 0x5f, 0x39, 0x2f, 0x4c, 0x65, 0x61, 0x6b,
  0x79, 0x52, 0x65, 0x6c, 0x75, 0x00, 0x00, 0x00, 0x02, 0x00, 0x00, 0x00,
  0x01, 0x00, 0x00, 0x00, 0x40, 0x00, 0x00, 0x00, 0x62, 0xf6, 0xff, 0xff,
  0x00, 0x00, 0x00, 0x01, 0x18, 0x00, 0x00, 0x00, 0x20, 0x00, 0x00, 0x00,
  0x3c, 0x00, 0x00, 0x00, 0x14, 0x00, 0x00, 0x00, 0x00, 0x00, 0x00, 0x09,
  0x70, 0x00, 0x00, 0x00, 0x02, 0x00, 0x00, 0x00, 0xff, 0xff, 0xff, 0xff,
  0x40, 0x00, 0x00, 0x00, 0x4c, 0xf6, 0xff, 0xff, 0x08, 0x00, 0x00, 0x00,
  0x10, 0x00, 0x00, 0x00, 0x01, 0x00, 0x00, 0x00, 0x02, 0x00, 0x00, 0x00,
  0x00, 0x00, 0x00, 0x00, 0x01, 0x00, 0x00, 0x00, 0xe5, 0x64, 0xb7, 0x3c,
  0x3a, 0x00, 0x00, 0x00, 0x73, 0x65, 0x71, 0x75, 0x65, 0x6e, 0x74, 0x69,
  0x61, 0x6c, 0x5f, 0x33, 0x2f, 0x64, 0x65, 0x6e, 0x73, 0x65, 0x5f, 0x31,
  0x38, 0x2f, 0x4d, 0x61, 0x74, 0x4d, 0x75, 0x6c, 0x3b, 0x73, 0x65, 0x71,
  0x75, 0x65, 0x6e, 0x74, 0x69, 0x61, 0x6c, 0x5f, 0x33, 0x2f, 0x64, 0x65,
  0x6e, 0x73, 0x65, 0x5f, 0x31, 0x38, 0x2f, 0x42, 0x69, 0x61, 0x73, 0x41,
  0x64, 0x64, 0x00, 0x00, 0x02, 0x00, 0x00, 0x00, 0x01, 0x00, 0x00, 0x00,
  0x40, 0x00, 0x00, 0x00, 0xfa, 0xf6, 0xff, 0xff, 0x00, 0x00, 0x00, 0x01,
  0x18, 0x00, 0x00, 0x00, 0x20, 0x00, 0x00, 0x00, 0x40, 0x00, 0x00, 0x00,
  0x13, 0x00, 0x00, 0x00, 0x00, 0x00, 0x00, 0x09, 0x68, 0x00, 0x00, 0x00,
  0x02, 0x00, 0x00, 0x00, 0xff, 0xff, 0xff, 0xff, 0x20, 0x00, 0x00, 0x00,
  0xe4, 0xf6, 0xff, 0xff, 0x08, 0x00, 0x00, 0x00, 0x14, 0x00, 0x00, 0x00,
  0x01, 0x00, 0x00, 0x00, 0xb8, 0xff, 0xff, 0xff, 0xff, 0xff, 0xff, 0xff,
  0x00, 0x00, 0x00, 0x00, 0x01, 0x00, 0x00, 0x00, 0x10, 0xd4, 0xc2, 0x3b,
  0x2d, 0x00, 0x00, 0x00, 0x73, 0x65, 0x71, 0x75, 0x65, 0x6e, 0x74, 0x69,
  0x61, 0x6c, 0x5f, 0x33, 0x2f, 0x64, 0x65, 0x6e, 0x73, 0x65, 0x5f, 0x31,
  0x37, 0x2f, 0x6c, 0x65, 0x61, 0x6b, 0x79, 0x5f, 0x72, 0x65, 0x5f, 0x6c,
  0x75, 0x5f, 0x38, 0x2f, 0x4c, 0x65, 0x61, 0x6b, 0x79, 0x52, 0x65, 0x6c,
  0x75, 0x00, 0x00, 0x00, 0x02, 0x00, 0x00, 0x00, 0x01, 0x00, 0x00, 0x00,
  0x20, 0x00, 0x00, 0x00, 0x8a, 0xf7, 0xff, 0xff, 0x00, 0x00, 0x00, 0x01,
  0x18, 0x00, 0x00, 0x00, 0x20, 0x00, 0x00, 0x00, 0x3c, 0x00, 0x00, 0x00,
  0x12, 0x00, 0x00, 0x00, 0x00, 0x00, 0x00, 0x09, 0x70, 0x00, 0x00, 0x00,
  0x02, 0x00, 0x00, 0x00, 0xff, 0xff, 0xff, 0xff, 0x20, 0x00, 0x00, 0x00,
  0x74, 0xf7, 0xff, 0xff, 0x08, 0x00, 0x00, 0x00, 0x10, 0x00, 0x00, 0x00,
  0x01, 0x00, 0x00, 0x00, 0xfc, 0xff, 0xff, 0xff, 0xff, 0xff, 0xff, 0xff,
  0x01, 0x00, 0x00, 0x00, 0xa3, 0x84, 0x13, 0x3c, 0x3a, 0x00, 0x00, 0x00,
  0x73, 0x65, 0x71, 0x75, 0x65, 0x6e, 0x74, 0x69, 0x61, 0x6c, 0x5f, 0x33,
  0x2f, 0x64, 0x65, 0x6e, 0x73, 0x65, 0x5f, 0x31, 0x37, 0x2f, 0x4d, 0x61,
  0x74, 0x4d, 0x75, 0x6c, 0x3b, 0x73, 0x65, 0x71, 0x75, 0x65, 0x6e, 0x74,
  0x69, 0x61, 0x6c, 0x5f, 0x33, 0x2f, 0x64, 0x65, 0x6e, 0x73, 0x65, 0x5f,
  0x31, 0x37, 0x2f, 0x42, 0x69, 0x61, 0x73, 0x41, 0x64, 0x64, 0x00, 0x00,
  0x02, 0x00, 0x00, 0x00, 0x01, 0x00, 0x00, 0x00, 0x20, 0x00, 0x00, 0x00,
  0x22, 0xf8, 0xff, 0xff, 0x00, 0x00, 0x00, 0x01, 0x18, 0x00, 0x00, 0x00,
  0x20, 0x00, 0x00, 0x00, 0x40, 0x00, 0x00, 0x00, 0x11, 0x00, 0x00, 0x00,
  0x00, 0x00, 0x00, 0x09, 0x68, 0x00, 0x00, 0x00, 0x02, 0x00, 0x00, 0x00,
  0xff, 0xff, 0xff, 0xff, 0x10, 0x00, 0x00, 0x00, 0x0c, 0xf8, 0xff, 0xff,
  0x08, 0x00, 0x00, 0x00, 0x14, 0x00, 0x00, 0x00, 0x01, 0x00, 0x00, 0x00,
  0xad, 0xff, 0xff, 0xff, 0xff, 0xff, 0xff, 0xff, 0x00, 0x00, 0x00, 0x00,
  0x01, 0x00, 0x00, 0x00, 0x21, 0xd5, 0x51, 0x3b, 0x2d, 0x00, 0x00, 0x00,
  0x73, 0x65, 0x71, 0x75, 0x65, 0x6e, 0x74, 0x69, 0x61, 0x6c, 0x5f, 0x33,
  0x2f, 0x64, 0x65, 0x6e, 0x73, 0x65, 0x5f, 0x31, 0x36, 0x2f, 0x6c, 0x65,
  0x61, 0x6b, 0x79, 0x5f, 0x72, 0x65, 0x5f, 0x6c, 0x75, 0x5f, 0x37, 0x2f,
  0x4c, 0x65, 0x61, 0x6b, 0x79, 0x52, 0x65, 0x6c, 0x75, 0x00, 0x00, 0x00,
  0x02, 0x00, 0x00, 0x00, 0x01, 0x00, 0x00, 0x00, 0x10, 0x00, 0x00, 0x00,
  0xb2, 0xf8, 0xff, 0xff, 0x00, 0x00, 0x00, 0x01, 0x18, 0x00, 0x00, 0x00,
  0x20, 0x00, 0x00, 0x00, 0x3c, 0x00, 0x00, 0x00, 0x10, 0x00, 0x00, 0x00,
  0x00, 0x00, 0x00, 0x09, 0x70, 0x00, 0x00, 0x00, 0x02, 0x00, 0x00, 0x00,
  0xff, 0xff, 0xff, 0xff, 0x10, 0x00, 0x00, 0x00, 0x9c, 0xf8, 0xff, 0xff,
  0x08, 0x00, 0x00, 0x00, 0x10, 0x00, 0x00, 0x00, 0x01, 0x00, 0x00, 0x00,
  0xeb, 0xff, 0xff, 0xff, 0xff, 0xff, 0xff, 0xff, 0x01, 0x00, 0x00, 0x00,
  0x9e, 0x69, 0x94, 0x3b, 0x3a, 0x00, 0x00, 0x00, 0x73, 0x65, 0x71, 0x75,
  0x65, 0x6e, 0x74, 0x69, 0x61, 0x6c, 0x5f, 0x33, 0x2f, 0x64, 0x65, 0x6e,
  0x73, 0x65, 0x5f, 0x31, 0x36, 0x2f, 0x4d, 0x61, 0x74, 0x4d, 0x75, 0x6c,
  0x3b, 0x73, 0x65, 0x71, 0x75, 0x65, 0x6e, 0x74, 0x69, 0x61, 0x6c, 0x5f,
  0x33, 0x2f, 0x64, 0x65, 0x6e, 0x73, 0x65, 0x5f, 0x31, 0x36, 0x2f, 0x42,
  0x69, 0x61, 0x73, 0x41, 0x64, 0x64, 0x00, 0x00, 0x02, 0x00, 0x00, 0x00,
  0x01, 0x00, 0x00, 0x00, 0x10, 0x00, 0x00, 0x00, 0x4a, 0xf9, 0xff, 0xff,
  0x00, 0x00, 0x00, 0x01, 0x18, 0x00, 0x00, 0x00, 0x20, 0x00, 0x00, 0x00,
  0x40, 0x00, 0x00, 0x00, 0x0f, 0x00, 0x00, 0x00, 0x00, 0x00, 0x00, 0x09,
  0x68, 0x00, 0x00, 0x00, 0x02, 0x00, 0x00, 0x00, 0xff, 0xff, 0xff, 0xff,
  0x08, 0x00, 0x00, 0x00, 0x34, 0xf9, 0xff, 0xff, 0x08, 0x00, 0x00, 0x00,
  0x14, 0x00, 0x00, 0x00, 0x01, 0x00, 0x00, 0x00, 0xac, 0xff, 0xff, 0xff,
  0xff, 0xff, 0xff, 0xff, 0x00, 0x00, 0x00, 0x00, 0x01, 0x00, 0x00, 0x00,
  0x2b, 0x4e, 0x6c, 0x3b, 0x2d, 0x00, 0x00, 0x00, 0x73, 0x65, 0x71, 0x75,
  0x65, 0x6e, 0x74, 0x69, 0x61, 0x6c, 0x5f, 0x33, 0x2f, 0x64, 0x65, 0x6e,
  0x73, 0x65, 0x5f, 0x31, 0x35, 0x2f, 0x6c, 0x65, 0x61, 0x6b, 0x79, 0x5f,
  0x72, 0x65, 0x5f, 0x6c, 0x75, 0x5f, 0x36, 0x2f, 0x4c, 0x65, 0x61, 0x6b,
  0x79, 0x52, 0x65, 0x6c, 0x75, 0x00, 0x00, 0x00, 0x02, 0x00, 0x00, 0x00,
  0x01, 0x00, 0x00, 0x00, 0x08, 0x00, 0x00, 0x00, 0xda, 0xf9, 0xff, 0xff,
  0x00, 0x00, 0x00, 0x01, 0x18, 0x00, 0x00, 0x00, 0x20, 0x00, 0x00, 0x00,
  0x3c, 0x00, 0x00, 0x00, 0x0e, 0x00, 0x00, 0x00, 0x00, 0x00, 0x00, 0x09,
  0x70, 0x00, 0x00, 0x00, 0x02, 0x00, 0x00, 0x00, 0xff, 0xff, 0xff, 0xff,
  0x08, 0x00, 0x00, 0x00, 0xc4, 0xf9, 0xff, 0xff, 0x08, 0x00, 0x00, 0x00,
  0x10, 0x00, 0x00, 0x00, 0x01, 0x00, 0x00, 0x00, 0xe8, 0xff, 0xff, 0xff,
  0xff, 0xff, 0xff, 0xff, 0x01, 0x00, 0x00, 0x00, 0x89, 0xa8, 0xa5, 0x3b,
  0x3a, 0x00, 0x00, 0x00, 0x73, 0x65, 0x71, 0x75, 0x65, 0x6e, 0x74, 0x69,
  0x61, 0x6c, 0x5f, 0x33, 0x2f, 0x64, 0x65, 0x6e, 0x73, 0x65, 0x5f, 0x31,
  0x35, 0x2f, 0x4d, 0x61, 0x74, 0x4d, 0x75, 0x6c, 0x3b, 0x73, 0x65, 0x71,
  0x75, 0x65, 0x6e, 0x74, 0x69, 0x61, 0x6c, 0x5f, 0x33, 0x2f, 0x64, 0x65,
  0x6e, 0x73, 0x65, 0x5f, 0x31, 0x35, 0x2f, 0x42, 0x69, 0x61, 0x73, 0x41,
  0x64, 0x64, 0x00, 0x00, 0x02, 0x00, 0x00, 0x00, 0x01, 0x00, 0x00, 0x00,
  0x08, 0x00, 0x00, 0x00, 0x06, 0xfb, 0xff, 0xff, 0x00, 0x00, 0x00, 0x01,
  0x14, 0x00, 0x00, 0x00, 0x34, 0x00, 0x00, 0x00, 0x0d, 0x00, 0x00, 0x00,
  0x00, 0x00, 0x00, 0x09, 0x4c, 0x00, 0x00, 0x00, 0x4c, 0xfa, 0xff, 0xff,
  0x08, 0x00, 0x00, 0x00, 0x14, 0x00, 0x00, 0x00, 0x01, 0x00, 0x00, 0x00,
  0x00, 0x00, 0x00, 0x00, 0x00, 0x00, 0x00, 0x00, 0x00, 0x00, 0x00, 0x00,
  0x01, 0x00, 0x00, 0x00, 0x7c, 0xda, 0xcd, 0x3b, 0x1c, 0x00, 0x00, 0x00,
  0x73, 0x65, 0x71, 0x75, 0x65, 0x6e, 0x74, 0x69, 0x61, 0x6c, 0x5f, 0x33,
  0x2f, 0x64, 0x65, 0x6e, 0x73, 0x65, 0x5f, 0x31, 0x35, 0x2f, 0x4d, 0x61,
  0x74, 0x4d, 0x75, 0x6c, 0x00, 0x00, 0x00, 0x00, 0x02, 0x00, 0x00, 0x00,
  0x08, 0x00, 0x00, 0x00, 0x03, 0x00, 0x00, 0x00, 0x76, 0xfb, 0xff, 0xff,
  0x00, 0x00, 0x00, 0x01, 0x14, 0x00, 0x00, 0x00, 0x30, 0x00, 0x00, 0x00,
  0x0c, 0x00, 0x00, 0x00, 0x00, 0x00, 0x00, 0x02, 0x58, 0x00, 0x00, 0x00,
  0xbc, 0xfa, 0xff, 0xff, 0x08, 0x00, 0x00, 0x00, 0x10, 0x00, 0x00, 0x00,
  0x01, 0x00, 0x00, 0x00, 0x00, 0x00, 0x00, 0x00, 0x00, 0x00, 0x00, 0x00,
  0x01, 0x00, 0x00, 0x00, 0x41, 0x56, 0xed, 0x37, 0x2c, 0x00, 0x00, 0x00,
  0x73, 0x65, 0x71, 0x75, 0x65, 0x6e, 0x74, 0x69, 0x61, 0x6c, 0x5f, 0x33,
  0x2f, 0x64, 0x65, 0x6e, 0x73, 0x65, 0x5f, 0x31, 0x35, 0x2f, 0x42, 0x69,
  0x61, 0x73, 0x41, 0x64, 0x64, 0x2f, 0x52, 0x65, 0x61, 0x64, 0x56, 0x61,
  0x72, 0x69, 0x61, 0x62, 0x6c, 0x65, 0x4f, 0x70, 0x00, 0x00, 0x00, 0x00,
  0x01, 0x00, 0x00, 0x00, 0x08, 0x00, 0x00, 0x00, 0xee, 0xfb, 0xff, 0xff,
  0x00, 0x00, 0x00, 0x01, 0x14, 0x00, 0x00, 0x00, 0x34, 0x00, 0x00, 0x00,
  0x0b, 0x00, 0x00, 0x00, 0x00, 0x00, 0x00, 0x09, 0x4c, 0x00, 0x00, 0x00,
  0x34, 0xfb, 0xff, 0xff, 0x08, 0x00, 0x00, 0x00, 0x14, 0x00, 0x00, 0x00,
  0x01, 0x00, 0x00, 0x00, 0x00, 0x00, 0x00, 0x00, 0x00, 0x00, 0x00, 0x00,
  0x00, 0x00, 0x00, 0x00, 0x01, 0x00, 0x00, 0x00, 0xf5, 0xad, 0xb3, 0x3b,
  0x1c, 0x00, 0x00, 0x00, 0x73, 0x65, 0x71, 0x75, 0x65, 0x6e, 0x74, 0x69,
  0x61, 0x6c, 0x5f, 0x33, 0x2f, 0x64, 0x65, 0x6e, 0x73, 0x65, 0x5f, 0x31,
  0x36, 0x2f, 0x4d, 0x61, 0x74, 0x4d, 0x75, 0x6c, 0x00, 0x00, 0x00, 0x00,
  0x02, 0x00, 0x00, 0x00, 0x10, 0x00, 0x00, 0x00, 0x08, 0x00, 0x00, 0x00,
  0x5e, 0xfc, 0xff, 0xff, 0x00, 0x00, 0x00, 0x01, 0x14, 0x00, 0x00, 0x00,
  0x30, 0x00, 0x00, 0x00, 0x0a, 0x00, 0x00, 0x00, 0x00, 0x00, 0x00, 0x02,
  0x58, 0x00, 0x00, 0x00, 0xa4, 0xfb, 0xff, 0xff, 0x08, 0x00, 0x00, 0x00,
  0x10, 0x00, 0x00, 0x00, 0x01, 0x00, 0x00, 0x00, 0x00, 0x00, 0x00, 0x00,
  0x00, 0x00, 0x00, 0x00, 0x01, 0x00, 0x00, 0x00, 0x3b, 0xdb, 0xa5, 0x37,
  0x2c, 0x00, 0x00, 0x00, 0x73, 0x65, 0x71, 0x75, 0x65, 0x6e, 0x74, 0x69,
  0x61, 0x6c, 0x5f, 0x33, 0x2f, 0x64, 0x65, 0x6e, 0x73, 0x65, 0x5f, 0x31,
  0x36, 0x2f, 0x42, 0x69, 0x61, 0x73, 0x41, 0x64, 0x64, 0x2f, 0x52, 0x65,
  0x61, 0x64, 0x56, 0x61, 0x72, 0x69, 0x61, 0x62, 0x6c, 0x65, 0x4f, 0x70,
  0x00, 0x00, 0x00, 0x00, 0x01, 0x00, 0x00, 0x00, 0x10, 0x00, 0x00, 0x00,
  0xd6, 0xfc, 0xff, 0xff, 0x00, 0x00, 0x00, 0x01, 0x14, 0x00, 0x00, 0x00,
  0x34, 0x00, 0x00, 0x00, 0x09, 0x00, 0x00, 0x00, 0x00, 0x00, 0x00, 0x09,
  0x4c, 0x00, 0x00, 0x00, 0x1c, 0xfc, 0xff, 0xff, 0x08, 0x00, 0x00, 0x00,
  0x14, 0x00, 0x00, 0x00, 0x01, 0x00, 0x00, 0x00, 0x00, 0x00, 0x00, 0x00,
  0x00, 0x00, 0x00, 0x00, 0x00, 0x00, 0x00, 0x00, 0x01, 0x00, 0x00, 0x00,
  0x1b, 0xed, 0xae, 0x3b, 0x1c, 0x00, 0x00, 0x00, 0x73, 0x65, 0x71, 0x75,
  0x65, 0x6e, 0x74, 0x69, 0x61, 0x6c, 0x5f, 0x33, 0x2f, 0x64, 0x65, 0x6e,
  0x73, 0x65, 0x5f, 0x31, 0x37, 0x2f, 0x4d, 0x61, 0x74, 0x4d, 0x75, 0x6c,
  0x00, 0x00, 0x00, 0x00, 0x02, 0x00, 0x00, 0x00, 0x20, 0x00, 0x00, 0x00,
  0x10, 0x00, 0x00, 0x00, 0x46, 0xfd, 0xff, 0xff, 0x00, 0x00, 0x00, 0x01,
  0x14, 0x00, 0x00, 0x00, 0x30, 0x00, 0x00, 0x00, 0x08, 0x00, 0x00, 0x00,
  0x00, 0x00, 0x00, 0x02, 0x58, 0x00, 0x00, 0x00, 0x8c, 0xfc, 0xff, 0xff,
  0x08, 0x00, 0x00, 0x00, 0x10, 0x00, 0x00, 0x00, 0x01, 0x00, 0x00, 0x00,
  0x00, 0x00, 0x00, 0x00, 0x00, 0x00, 0x00, 0x00, 0x01, 0x00, 0x00, 0x00,
  0x35, 0x61, 0x8f, 0x37, 0x2c, 0x00, 0x00, 0x00, 0x73, 0x65, 0x71, 0x75,
  0x65, 0x6e, 0x74, 0x69, 0x61, 0x6c, 0x5f, 0x33, 0x2f, 0x64, 0x65, 0x6e,
  0x73, 0x65, 0x5f, 0x31, 0x37, 0x2f, 0x42, 0x69, 0x61, 0x73, 0x41, 0x64,
  0x64, 0x2f, 0x52, 0x65, 0x61, 0x64, 0x56, 0x61, 0x72, 0x69, 0x61, 0x62,
  0x6c, 0x65, 0x4f, 0x70, 0x00, 0x00, 0x00, 0x00, 0x01, 0x00, 0x00, 0x00,
  0x20, 0x00, 0x00, 0x00, 0xbe, 0xfd, 0xff, 0xff, 0x00, 0x00, 0x00, 0x01,
  0x14, 0x00, 0x00, 0x00, 0x34, 0x00, 0x00, 0x00, 0x07, 0x00, 0x00, 0x00,
  0x00, 0x00, 0x00, 0x09, 0x4c, 0x00, 0x00, 0x00, 0x04, 0xfd, 0xff, 0xff,
  0x08, 0x00, 0x00, 0x00, 0x14, 0x00, 0x00, 0x00, 0x01, 0x00, 0x00, 0x00,
  0x00, 0x00, 0x00, 0x00, 0x00, 0x00, 0x00, 0x00, 0x00, 0x00, 0x00, 0x00,
  0x01, 0x00, 0x00, 0x00, 0x8c, 0x4c, 0x90, 0x3b, 0x1c, 0x00, 0x00, 0x00,
  0x73, 0x65, 0x71, 0x75, 0x65, 0x6e, 0x74, 0x69, 0x61, 0x6c, 0x5f, 0x33,
  0x2f, 0x64, 0x65, 0x6e, 0x73, 0x65, 0x5f, 0x31, 0x38, 0x2f, 0x4d, 0x61,
  0x74, 0x4d, 0x75, 0x6c, 0x00, 0x00, 0x00, 0x00, 0x02, 0x00, 0x00, 0x00,
  0x40, 0x00, 0x00, 0x00, 0x20, 0x00, 0x00, 0x00, 0x2e, 0xfe, 0xff, 0xff,
  0x00, 0x00, 0x00, 0x01, 0x14, 0x00, 0x00, 0x00, 0x30, 0x00, 0x00, 0x00,
  0x06, 0x00, 0x00, 0x00, 0x00, 0x00, 0x00, 0x02, 0x58, 0x00, 0x00, 0x00,
  0x74, 0xfd, 0xff, 0xff, 0x08, 0x00, 0x00, 0x00, 0x10, 0x00, 0x00, 0x00,
  0x01, 0x00, 0x00, 0x00, 0x00, 0x00, 0x00, 0x00, 0x00, 0x00, 0x00, 0x00,
  0x01, 0x00, 0x00, 0x00, 0x15, 0xa3, 0xdb, 0x37, 0x2c, 0x00, 0x00, 0x00,
  0x73, 0x65, 0x71, 0x75, 0x65, 0x6e, 0x74, 0x69, 0x61, 0x6c, 0x5f, 0x33,
  0x2f, 0x64, 0x65, 0x6e, 0x73, 0x65, 0x5f, 0x31, 0x38, 0x2f, 0x42, 0x69,
  0x61, 0x73, 0x41, 0x64, 0x64, 0x2f, 0x52, 0x65, 0x61, 0x64, 0x56, 0x61,
  0x72, 0x69, 0x61, 0x62, 0x6c, 0x65, 0x4f, 0x70, 0x00, 0x00, 0x00, 0x00,
  0x01, 0x00, 0x00, 0x00, 0x40, 0x00, 0x00, 0x00, 0xa6, 0xfe, 0xff, 0xff,
  0x00, 0x00, 0x00, 0x01, 0x14, 0x00, 0x00, 0x00, 0x34, 0x00, 0x00, 0x00,
  0x05, 0x00, 0x00, 0x00, 0x00, 0x00, 0x00, 0x09, 0x4c, 0x00, 0x00, 0x00,
  0xec, 0xfd, 0xff, 0xff, 0x08, 0x00, 0x00, 0x00, 0x14, 0x00, 0x00, 0x00,
  0x01, 0x00, 0x00, 0x00, 0x00, 0x00, 0x00, 0x00, 0x00, 0x00, 0x00, 0x00,
  0x00, 0x00, 0x00, 0x00, 0x01, 0x00, 0x00, 0x00, 0x46, 0x5d, 0x6d, 0x3b,
  0x1c, 0x00, 0x00, 0x00, 0x73, 0x65, 0x71, 0x75, 0x65, 0x6e, 0x74, 0x69,
  0x61, 0x6c, 0x5f, 0x33, 0x2f, 0x64, 0x65, 0x6e, 0x73, 0x65, 0x5f, 0x31,
  0x39, 0x2f, 0x4d, 0x61, 0x74, 0x4d, 0x75, 0x6c, 0x00, 0x00, 0x00, 0x00,
  0x02, 0x00, 0x00, 0x00, 0x08, 0x00, 0x00, 0x00, 0x40, 0x00, 0x00, 0x00,
  0x16, 0xff, 0xff, 0xff, 0x00, 0x00, 0x00, 0x01, 0x14, 0x00, 0x00, 0x00,
  0x30, 0x00, 0x00, 0x00, 0x04, 0x00, 0x00, 0x00, 0x00, 0x00, 0x00, 0x02,
  0x58, 0x00, 0x00, 0x00, 0x5c, 0xfe, 0xff, 0xff, 0x08, 0x00, 0x00, 0x00,
  0x10, 0x00, 0x00, 0x00, 0x01, 0x00, 0x00, 0x00, 0x00, 0x00, 0x00, 0x00,
  0x00, 0x00, 0x00, 0x00, 0x01, 0x00, 0x00, 0x00, 0x19, 0xf2, 0x5a, 0x38,
  0x2c, 0x00, 0x00, 0x00, 0x73, 0x65, 0x71, 0x75, 0x65, 0x6e, 0x74, 0x69,
  0x61, 0x6c, 0x5f, 0x33, 0x2f, 0x64, 0x65, 0x6e, 0x73, 0x65, 0x5f, 0x31,
  0x39, 0x2f, 0x42, 0x69, 0x61, 0x73, 0x41, 0x64, 0x64, 0x2f, 0x52, 0x65,
  0x61, 0x64, 0x56, 0x61, 0x72, 0x69, 0x61, 0x62, 0x6c, 0x65, 0x4f, 0x70,
  0x00, 0x00, 0x00, 0x00, 0x01, 0x00, 0x00, 0x00, 0x08, 0x00, 0x00, 0x00,
  0x8e, 0xff, 0xff, 0xff, 0x00, 0x00, 0x00, 0x01, 0x14, 0x00, 0x00, 0x00,
  0x34, 0x00, 0x00, 0x00, 0x03, 0x00, 0x00, 0x00, 0x00, 0x00, 0x00, 0x09,
  0x4c, 0x00, 0x00, 0x00, 0xd4, 0xfe, 0xff, 0xff, 0x08, 0x00, 0x00, 0x00,
  0x14, 0x00, 0x00, 0x00, 0x01, 0x00, 0x00, 0x00, 0x00, 0x00, 0x00, 0x00,
  0x00, 0x00, 0x00, 0x00, 0x00, 0x00, 0x00, 0x00, 0x01, 0x00, 0x00, 0x00,
  0xd7, 0x44, 0xd1, 0x3b, 0x1c, 0x00, 0x00, 0x00, 0x73, 0x65, 0x71, 0x75,
  0x65, 0x6e, 0x74, 0x69, 0x61, 0x6c, 0x5f, 0x33, 0x2f, 0x64, 0x65, 0x6e,
  0x73, 0x65, 0x5f, 0x32, 0x30, 0x2f, 0x4d, 0x61, 0x74, 0x4d, 0x75, 0x6c,
  0x00, 0x00, 0x00, 0x00, 0x02, 0x00, 0x00, 0x00, 0x02, 0x00, 0x00, 0x00,
  0x08, 0x00, 0x00, 0x00, 0x00, 0x00, 0x16, 0x00, 0x1c, 0x00, 0x18, 0x00,
  0x17, 0x00, 0x10, 0x00, 0x0c, 0x00, 0x08, 0x00, 0x00, 0x00, 0x00, 0x00,
  0x00, 0x00, 0x07, 0x00, 0x16, 0x00, 0x00, 0x00, 0x00, 0x00, 0x00, 0x01,
  0x14, 0x00, 0x00, 0x00, 0x34, 0x00, 0x00, 0x00, 0x02, 0x00, 0x00, 0x00,
  0x00, 0x00, 0x00, 0x02, 0x5c, 0x00, 0x00, 0x00, 0x5c, 0xff, 0xff, 0xff,
  0x08, 0x00, 0x00, 0x00, 0x14, 0x00, 0x00, 0x00, 0x01, 0x00, 0x00, 0x00,
  0x00, 0x00, 0x00, 0x00, 0x00, 0x00, 0x00, 0x00, 0x00, 0x00, 0x00, 0x00,
  0x01, 0x00, 0x00, 0x00, 0xe6, 0xc9, 0xff, 0x39, 0x2c, 0x00, 0x00, 0x00,
  0x73, 0x65, 0x71, 0x75, 0x65, 0x6e, 0x74, 0x69, 0x61, 0x6c, 0x5f, 0x33,
  0x2f, 0x64, 0x65, 0x6e, 0x73, 0x65, 0x5f, 0x32, 0x30, 0x2f, 0x42, 0x69,
  0x61, 0x73, 0x41, 0x64, 0x64, 0x2f, 0x52, 0x65, 0x61, 0x64, 0x56, 0x61,
  0x72, 0x69, 0x61, 0x62, 0x6c, 0x65, 0x4f, 0x70, 0x00, 0x00, 0x00, 0x00,
  0x01, 0x00, 0x00, 0x00, 0x02, 0x00, 0x00, 0x00, 0x00, 0x00, 0x16, 0x00,
  0x20, 0x00, 0x1c, 0x00, 0x1b, 0x00, 0x14, 0x00, 0x10, 0x00, 0x0c, 0x00,
  0x00, 0x00, 0x00, 0x00, 0x08, 0x00, 0x07, 0x00, 0x16, 0x00, 0x00, 0x00,
  0x00, 0x00, 0x00, 0x01, 0x18, 0x00, 0x00, 0x00, 0x2c, 0x00, 0x00, 0x00,
  0x48, 0x00, 0x00, 0x00, 0x01, 0x00, 0x00, 0x00, 0x00, 0x00, 0x00, 0x09,
  0x64, 0x00, 0x00, 0x00, 0x02, 0x00, 0x00, 0x00, 0xff, 0xff, 0xff, 0xff,
  0x03, 0x00, 0x00, 0x00, 0x0c, 0x00, 0x0c, 0x00, 0x00, 0x00, 0x00, 0x00,
  0x08, 0x00, 0x04, 0x00, 0x0c, 0x00, 0x00, 0x00, 0x08, 0x00, 0x00, 0x00,
  0x10, 0x00, 0x00, 0x00, 0x01, 0x00, 0x00, 0x00, 0xff, 0xff, 0xff, 0xff,
  0xff, 0xff, 0xff, 0xff, 0x01, 0x00, 0x00, 0x00, 0x94, 0x93, 0x93, 0x3b,
  0x20, 0x00, 0x00, 0x00, 0x73, 0x65, 0x72, 0x76, 0x69, 0x6e, 0x67, 0x5f,
  0x64, 0x65, 0x66, 0x61, 0x75, 0x6c, 0x74, 0x5f, 0x64, 0x65, 0x6e, 0x73,
  0x65, 0x5f, 0x31, 0x35, 0x5f, 0x69, 0x6e, 0x70, 0x75, 0x74, 0x3a, 0x30,
  0x00, 0x00, 0x00, 0x00, 0x02, 0x00, 0x00, 0x00, 0x01, 0x00, 0x00, 0x00,
  0x03, 0x00, 0x00, 0x00, 0x03, 0x00, 0x00, 0x00, 0x40, 0x00, 0x00, 0x00,
  0x24, 0x00, 0x00, 0x00, 0x04, 0x00, 0x00, 0x00, 0xd8, 0xff, 0xff, 0xff,
  0x19, 0x00, 0x00, 0x00, 0x02, 0x00, 0x00, 0x00, 0x00, 0x00, 0x00, 0x19,
  0x0c, 0x00, 0x0c, 0x00, 0x0b, 0x00, 0x00, 0x00, 0x00, 0x00, 0x04, 0x00,
  0x0c, 0x00, 0x00, 0x00, 0x62, 0x00, 0x00, 0x00, 0x00, 0x00, 0x00, 0x62,
  0x0c, 0x00, 0x10, 0x00, 0x0f, 0x00, 0x00, 0x00, 0x08, 0x00, 0x04, 0x00,
  0x0c, 0x00, 0x00, 0x00, 0x09, 0x00, 0x00, 0x00, 0x04, 0x00, 0x00, 0x00,
  0x00, 0x00, 0x00, 0x09

};
const int g_model_len = 8776;
